{
  "version": "1.0",
  "truncation": null,
  "padding": null,
  "added_tokens": [
    {
      "id": 0,
      "content": "<|pad|>",
      "single_word": false,
      "lstrip": false,
      "rstrip": false,
      "normalized": false,
      "special": true
    },
    {
      "id": 1,
      "content": "<|eos|>",
      "single_word": false,
      "lstrip": false,
      "rstrip": false,
      "normalized": false,
      "special": true
    },
    {
      "id": 2,
      "content": "<|bos|>",
      "single_word": false,
      "lstrip": false,
      "rstrip": false,
      "normalized": false,
      "special": true
    },
    {
      "id": 3,
      "content": "<|unk|>",
      "single_word": false,
      "lstrip": false,
      "rstrip": false,
      "normalized": false,
      "special": true
    },
    {
      "id": 4,
      "content": "<|sep|>",
      "single_word": false,
      "lstrip": false,
      "rstrip": false,
      "normalized": false,
      "special": true
    }
  ],
  "normalizer": null,
  "pre_tokenizer": {
    "type": "ByteLevel",
    "add_prefix_space": false,
    "trim_offsets": true,
    "use_regex": true
  },
  "post_processor": null,
  "decoder": {
    "type": "ByteLevel",
    "add_prefix_space": true,
    "trim_offsets": true,
    "use_regex": true
  },
  "model": {
    "type": "BPE",
    "dropout": null,
    "unk_token": "<|unk|>",
    "continuing_subword_prefix": null,
    "end_of_word_suffix": null,
    "fuse_unk": false,
    "byte_fallback": false,
    "ignore_merges": false,
    "vocab": {
      "<|pad|>": 0,
      "<|eos|>": 1,
      "<|bos|>": 2,
      "<|unk|>": 3,
      "<|sep|>": 4,
      "!": 5,
      "\"": 6,
      "#": 7,
      "$": 8,
      "%": 9,
      "&": 10,
      "'": 11,
      "(": 12,
      ")": 13,
      "*": 14,
      "+": 15,
      ",": 16,
      "-": 17,
      ".": 18,
      "/": 19,
      "0": 20,
      "1": 21,
      "2": 22,
      "3": 23,
      "4": 24,
      "5": 25,
      "6": 26,
      "7": 27,
      "8": 28,
      "9": 29,
      ":": 30,
      ";": 31,
      "<": 32,
      "=": 33,
      ">": 34,
      "?": 35,
      "@": 36,
      "A": 37,
      "B": 38,
      "C": 39,
      "D": 40,
      "E": 41,
      "F": 42,
      "G": 43,
      "H": 44,
      "I": 45,
      "J": 46,
      "K": 47,
      "L": 48,
      "M": 49,
      "N": 50,
      "O": 51,
      "P": 52,
      "Q": 53,
      "R": 54,
      "S": 55,
      "T": 56,
      "U": 57,
      "V": 58,
      "W": 59,
      "X": 60,
      "Y": 61,
      "Z": 62,
      "[": 63,
      "\\": 64,
      "]": 65,
      "^": 66,
      "_": 67,
      "`": 68,
      "a": 69,
      "b": 70,
      "c": 71,
      "d": 72,
      "e": 73,
      "f": 74,
      "g": 75,
      "h": 76,
      "i": 77,
      "j": 78,
      "k": 79,
      "l": 80,
      "m": 81,
      "n": 82,
      "o": 83,
      "p": 84,
      "q": 85,
      "r": 86,
      "s": 87,
      "t": 88,
      "u": 89,
      "v": 90,
      "w": 91,
      "x": 92,
      "y": 93,
      "z": 94,
      "{": 95,
      "|": 96,
      "}": 97,
      "~": 98,
      "¡": 99,
      "¢": 100,
      "£": 101,
      "¤": 102,
      "¥": 103,
      "¦": 104,
      "§": 105,
      "¨": 106,
      "©": 107,
      "ª": 108,
      "«": 109,
      "¬": 110,
      "®": 111,
      "¯": 112,
      "°": 113,
      "±": 114,
      "²": 115,
      "³": 116,
      "´": 117,
      "µ": 118,
      "¶": 119,
      "·": 120,
      "¸": 121,
      "¹": 122,
      "º": 123,
      "»": 124,
      "¼": 125,
      "½": 126,
      "¾": 127,
      "¿": 128,
      "À": 129,
      "Á": 130,
      "Â": 131,
      "Ã": 132,
      "Ä": 133,
      "Å": 134,
      "Æ": 135,
      "Ç": 136,
      "È": 137,
      "É": 138,
      "Ê": 139,
      "Ë": 140,
      "Ì": 141,
      "Í": 142,
      "Î": 143,
      "Ï": 144,
      "Ð": 145,
      "Ñ": 146,
      "Ò": 147,
      "Ó": 148,
      "Ô": 149,
      "Õ": 150,
      "Ö": 151,
      "×": 152,
      "Ø": 153,
      "Ù": 154,
      "Ú": 155,
      "Û": 156,
      "Ü": 157,
      "Ý": 158,
      "Þ": 159,
      "ß": 160,
      "à": 161,
      "á": 162,
      "â": 163,
      "ã": 164,
      "ä": 165,
      "å": 166,
      "æ": 167,
      "ç": 168,
      "è": 169,
      "é": 170,
      "ê": 171,
      "ë": 172,
      "ì": 173,
      "í": 174,
      "î": 175,
      "ï": 176,
      "ð": 177,
      "ñ": 178,
      "ò": 179,
      "ó": 180,
      "ô": 181,
      "õ": 182,
      "ö": 183,
      "÷": 184,
      "ø": 185,
      "ù": 186,
      "ú": 187,
      "û": 188,
      "ü": 189,
      "ý": 190,
      "þ": 191,
      "ÿ": 192,
      "Ā": 193,
      "ā": 194,
      "Ă": 195,
      "ă": 196,
      "Ą": 197,
      "ą": 198,
      "Ć": 199,
      "ć": 200,
      "Ĉ": 201,
      "ĉ": 202,
      "Ċ": 203,
      "ċ": 204,
      "Č": 205,
      "č": 206,
      "Ď": 207,
      "ď": 208,
      "Đ": 209,
      "đ": 210,
      "Ē": 211,
      "ē": 212,
      "Ĕ": 213,
      "ĕ": 214,
      "Ė": 215,
      "ė": 216,
      "Ę": 217,
      "ę": 218,
      "Ě": 219,
      "ě": 220,
      "Ĝ": 221,
      "ĝ": 222,
      "Ğ": 223,
      "ğ": 224,
      "Ġ": 225,
      "ġ": 226,
      "Ģ": 227,
      "ģ": 228,
      "Ĥ": 229,
      "ĥ": 230,
      "Ħ": 231,
      "ħ": 232,
      "Ĩ": 233,
      "ĩ": 234,
      "Ī": 235,
      "ī": 236,
      "Ĭ": 237,
      "ĭ": 238,
      "Į": 239,
      "į": 240,
      "İ": 241,
      "ı": 242,
      "Ĳ": 243,
      "ĳ": 244,
      "Ĵ": 245,
      "ĵ": 246,
      "Ķ": 247,
      "ķ": 248,
      "ĸ": 249,
      "Ĺ": 250,
      "ĺ": 251,
      "Ļ": 252,
      "ļ": 253,
      "Ľ": 254,
      "ľ": 255,
      "Ŀ": 256,
      "ŀ": 257,
      "Ł": 258,
      "ł": 259,
      "Ń": 260,
      "ĠĠ": 261,
      "ĠĠĠĠ": 262,
      "ĠĠĠĠĠĠĠĠ": 263,
      "ĠĠĠ": 264,
      "in": 265,
      "er": 266,
      "on": 267,
      "re": 268,
      "at": 269,
      "or": 270,
      "st": 271,
      "en": 272,
      "--": 273,
      "le": 274,
      "Ġt": 275,
      "an": 276,
      "al": 277,
      "ar": 278,
      "se": 279,
      "it": 280,
      "Ġ=": 281,
      "ĊĠĠĠĠ": 282,
      "ĊĠĠĠ": 283,
      "ĊĠĠĠĠĠĠĠĠ": 284,
      "ion": 285,
      "Ġc": 286,
      "de": 287,
      "ct": 288,
      "ro": 289,
      "he": 290,
      "me": 291,
      "ĉĉ": 292,
      "ss": 293,
      "ĊĠĠĠĠĠĠĠ": 294,
      "ĊĠ": 295,
      "ing": 296,
      "ic": 297,
      "ut": 298,
      "Ġf": 299,
      "la": 300,
      "Ġ{": 301,
      "00": 302,
      "----": 303,
      "is": 304,
      "ent": 305,
      "un": 306,
      "ge": 307,
      "Ġp": 308,
      "Ġ(": 309,
      "Ġ\"": 310,
      "ol": 311,
      "Ġa": 312,
      "ur": 313,
      "ce": 314,
      "lo": 315,
      "Ġ'": 316,
      "=\"": 317,
      "mp": 318,
      "id": 319,
      "Ġs": 320,
      ");": 321,
      "Ġ0": 322,
      "</": 323,
      "Ġb": 324,
      "ad": 325,
      "ed": 326,
      "//": 327,
      "Ġn": 328,
      "if": 329,
      "ig": 330,
      "ex": 331,
      "==": 332,
      "pe": 333,
      "**": 334,
      "ĠĠĠĠĠĠĠĠĠĠĠĠĠĠĠĠ": 335,
      "tr": 336,
      "il": 337,
      "',": 338,
      "Ġthe": 339,
      "es": 340,
      "Ġm": 341,
      "ame": 342,
      "Ġin": 343,
      "Ġ$": 344,
      "ck": 345,
      "ot": 346,
      "Ġ1": 347,
      "Ġ-": 348,
      "ul": 349,
      "Ġre": 350,
      "el": 351,
      "Ġ.": 352,
      "co": 353,
      "::": 354,
      "Ġ<": 355,
      "ĊĠĠĠĠĠĠĠĠĠĠĠ": 356,
      "Ġd": 357,
      "Ġo": 358,
      "ate": 359,
      "Ġ}": 360,
      "ĠS": 361,
      "ht": 362,
      "li": 363,
      "Ġ*": 364,
      "ch": 365,
      "et": 366,
      "Ġw": 367,
      "ue": 368,
      "ation": 369,
      "ont": 370,
      "),": 371,
      "ab": 372,
      "iv": 373,
      "sp": 374,
      "ap": 375,
      "ĠC": 376,
      "ĠĠĠĠĠĠĠ": 377,
      "lass": 378,
      "ub": 379,
      "--------": 380,
      "th": 381,
      "ĠI": 382,
      "ĠT": 383,
      "\">": 384,
      "us": 385,
      "ype": 386,
      "Ċĉĉ": 387,
      "ĠA": 388,
      "\",": 389,
      "Ġv": 390,
      "end": 391,
      "to": 392,
      "um": 393,
      "##": 394,
      "and": 395,
      "ter": 396,
      "()": 397,
      "em": 398,
      "ction": 399,
      "age": 400,
      "str": 401,
      "ĊĠĠĠĠĠ": 402,
      "as": 403,
      "pt": 404,
      "ext": 405,
      "Ġto": 406,
      "Ċĉ": 407,
      "ort": 408,
      "Ġclass": 409,
      "Ġth": 410,
      "im": 411,
      "up": 412,
      "ine": 413,
      "ver": 414,
      "urn": 415,
      "iz": 416,
      "Ġh": 417,
      "ra": 418,
      "ĠN": 419,
      "te": 420,
      "able": 421,
      "od": 422,
      "ile": 423,
      "20": 424,
      "ode": 425,
      "====": 426,
      "Ġ[": 427,
      "px": 428,
      "get": 429,
      "In": 430,
      "set": 431,
      "ĠP": 432,
      "ĊĠĠĠĠĠĠĠĠĠĠĠĠĠĠĠĠ": 433,
      "Ġ#": 434,
      "ata": 435,
      "ĠD": 436,
      "Ġ\\": 437,
      "der": 438,
      "****": 439,
      "ack": 440,
      "turn": 441,
      "ow": 442,
      "Re": 443,
      "ew": 444,
      "__": 445,
      "orm": 446,
      "ĊĠĠĠĠĠĠĠĠĠĠĠĠĠĠĠ": 447,
      "all": 448,
      "col": 449,
      "ff": 450,
      "am": 451,
      "int": 452,
      "ight": 453,
      "Ġif": 454,
      "ect": 455,
      "ĠE": 456,
      "av": 457,
      "ĠM": 458,
      "fo": 459,
      "om": 460,
      "Ġde": 461,
      "IN": 462,
      "ir": 463,
      "..": 464,
      "ER": 465,
      "Ġof": 466,
      "ri": 467,
      "(\"": 468,
      "ult": 469,
      "span": 470,
      "ke": 471,
      "imp": 472,
      "ith": 473,
      "ase": 474,
      "per": 475,
      "10": 476,
      "Ġe": 477,
      "))": 478,
      "Ġ&": 479,
      "Ġ2": 480,
      "Ġis": 481,
      "con": 482,
      "ize": 483,
      "qu": 484,
      "Ġst": 485,
      "fa": 486,
      "op": 487,
      "arg": 488,
      "our": 489,
      "Ġfor": 490,
      "ĠF": 491,
      "Ġr": 492,
      "Ġl": 493,
      "Ġ=>": 494,
      "ans": 495,
      "Ġ//": 496,
      "->": 497,
      "gro": 498,
      "os": 499,
      "und": 500,
      "Ġ3": 501,
      "alue": 502,
      "ment": 503,
      "Ġ+": 504,
      "lic": 505,
      "put": 506,
      "ref": 507,
      "ac": 508,
      "ĠL": 509,
      "ON": 510,
      "sc": 511,
      "----------------": 512,
      "unction": 513,
      "ist": 514,
      "ption": 515,
      "0000": 516,
      "ant": 517,
      "sel": 518,
      "bo": 519,
      "ĊĠĠĠĠĠĠĠĠĠĠĠĠĠĠĠĠĠĠĠĠĠĠĠĠ": 520,
      "ma": 521,
      "Ġ`": 522,
      "bj": 523,
      "ers": 524,
      "ĊĊĠĠĠ": 525,
      "Ġand": 526,
      "art": 527,
      "ĠB": 528,
      "####": 529,
      "ĊĊ": 530,
      "ure": 531,
      "Ġ:": 532,
      "Ġ!": 533,
      "ource": 534,
      "self": 535,
      "ft": 536,
      "est": 537,
      "RE": 538,
      "ind": 539,
      "12": 540,
      "Ġcon": 541,
      "AA": 542,
      "Ġ/": 543,
      "ror": 544,
      "import": 545,
      "lu": 546,
      "}.": 547,
      "LL": 548,
      "cont": 549,
      "ĠO": 550,
      "><": 551,
      "name": 552,
      "sh": 553,
      "nt": 554,
      "Ġg": 555,
      "pro": 556,
      "act": 557,
      "Ġreturn": 558,
      "ime": 559,
      "oc": 560,
      "color": 561,
      "one": 562,
      "ath": 563,
      "ive": 564,
      "add": 565,
      "use": 566,
      "ign": 567,
      "Name": 568,
      "com": 569,
      "St": 570,
      "\")": 571,
      "Ġ@": 572,
      "form": 573,
      "are": 574,
      "dd": 575,
      "ml": 576,
      "Type": 577,
      "div": 578,
      "order": 579,
      "ag": 580,
      "čĊ": 581,
      "be": 582,
      "tp": 583,
      "ser": 584,
      "],": 585,
      "ib": 586,
      "out": 587,
      "ip": 588,
      "ial": 589,
      "11": 590,
      "ho": 591,
      "32": 592,
      "ĠG": 593,
      "('": 594,
      "ition": 595,
      "AT": 596,
      "ly": 597,
      "Ġ</": 598,
      "lay": 599,
      "Ġbe": 600,
      "Ġtr": 601,
      "line": 602,
      "eb": 603,
      "99": 604,
      "Ċĉĉĉĉ": 605,
      "ity": 606,
      "loc": 607,
      "type": 608,
      "ain": 609,
      "rom": 610,
      "mo": 611,
      "NT": 612,
      "16": 613,
      "25": 614,
      "ES": 615,
      "ĠĠĠĠĠ": 616,
      "omp": 617,
      "ĊĠĠĠĠĠĠĠĠĠĠĠĠĠĠĠĠĠĠĠ": 618,
      "ĠR": 619,
      "========": 620,
      "AR": 621,
      "Ġ|": 622,
      "Ġex": 623,
      "33": 624,
      "ĠV": 625,
      "ay": 626,
      "http": 627,
      "15": 628,
      "ild": 629,
      "fig": 630,
      "********": 631,
      "string": 632,
      "tring": 633,
      "Ġle": 634,
      "ite": 635,
      "nd": 636,
      "Ġthis": 637,
      "bject": 638,
      ").": 639,
      "64": 640,
      "Ġ%": 641,
      "ĠW": 642,
      "../": 643,
      "ull": 644,
      "item": 645,
      "Ġpro": 646,
      "ire": 647,
      "Ġ4": 648,
      "Ġ>": 649,
      "lock": 650,
      "ssage": 651,
      "idth": 652,
      "unt": 653,
      "></": 654,
      "','": 655,
      "Ġend": 656,
      "AL": 657,
      "},": 658,
      "Ex": 659,
      "que": 660,
      "%%": 661,
      "Ġ5": 662,
      "Pro": 663,
      "80": 664,
      "ty": 665,
      "Ġ--": 666,
      "\":": 667,
      "ec": 668,
      "td": 669,
      "OR": 670,
      "return": 671,
      "pp": 672,
      "14": 673,
      "ST": 674,
      "Ġhref": 675,
      "ary": 676,
      "res": 677,
      "ĠU": 678,
      "text": 679,
      "ground": 680,
      "ll": 681,
      "Ġor": 682,
      "Ġx": 683,
      "par": 684,
      "ance": 685,
      "Con": 686,
      "Ġi": 687,
      "Ġ_": 688,
      "trans": 689,
      "ert": 690,
      "Ġ)": 691,
      "LE": 692,
      "://": 693,
      "ang": 694,
      "ackground": 695,
      "list": 696,
      "pr": 697,
      "dex": 698,
      "ax": 699,
      "og": 700,
      "ink": 701,
      "ule": 702,
      "Ġ*/": 703,
      "her": 704,
      "code": 705,
      "eld": 706,
      "ĊĊĠ": 707,
      "ust": 708,
      "Ġname": 709,
      "clu": 710,
      "html": 711,
      "18": 712,
      "ve": 713,
      "();": 714,
      "Ġy": 715,
      "ULL": 716,
      "key": 717,
      "To": 718,
      "ice": 719,
      "66": 720,
      "ield": 721,
      "yst": 722,
      "low": 723,
      "ĊĠĠĠĠĠĠĠĠĠ": 724,
      "ard": 725,
      "md": 726,
      "argin": 727,
      "}{": 728,
      "Ġ==": 729,
      "uct": 730,
      "row": 731,
      "19": 732,
      "ID": 733,
      "30": 734,
      "val": 735,
      "ystem": 736,
      "ress": 737,
      "24": 738,
      "fault": 739,
      "ord": 740,
      "vent": 741,
      "ĠH": 742,
      "ies": 743,
      "alse": 744,
      "nav": 745,
      "size": 746,
      "Ġme": 747,
      "17": 748,
      "clude": 749,
      "SE": 750,
      "bu": 751,
      "Ġnot": 752,
      "ber": 753,
      "Ġon": 754,
      "ublic": 755,
      "heck": 756,
      "Ċĉĉĉ": 757,
      "test": 758,
      "cess": 759,
      "this": 760,
      "def": 761,
      "ore": 762,
      "Ġwith": 763,
      "Ġer": 764,
      "lab": 765,
      "Ġun": 766,
      "rap": 767,
      "ĠĠĠĠĠĠ": 768,
      "port": 769,
      "Ġcont": 770,
      "Res": 771,
      "Ġan": 772,
      "Ġse": 773,
      "ĠĠĠĠĠĠĠĠĠĠĠĠĠĠĠĠĠĠĠĠĠĠĠĠĠĠĠĠĠĠĠĠ": 774,
      "Ġ$(": 775,
      "data": 776,
      "ix": 777,
      "ated": 778,
      "lect": 779,
      "String": 780,
      "Cont": 781,
      "top": 782,
      "13": 783,
      "Ġself": 784,
      "ĊĠĠ": 785,
      "rc": 786,
      "ray": 787,
      "ĊĊĠĠĠĠĠĠĠ": 788,
      "ide": 789,
      "Ġdo": 790,
      "DE": 791,
      "bar": 792,
      "Ġas": 793,
      "dis": 794,
      "ange": 795,
      "ator": 796,
      "var": 797,
      "bt": 798,
      "source": 799,
      "important": 800,
      "file": 801,
      "quest": 802,
      "'),": 803,
      "right": 804,
      "else": 805,
      "left": 806,
      "Id": 807,
      "olor": 808,
      "De": 809,
      "ME": 810,
      "ener": 811,
      "function": 812,
      "atch": 813,
      "fore": 814,
      "io": 815,
      "po": 816,
      "\\+": 817,
      ",.": 818,
      "Ġ->": 819,
      "log": 820,
      "ens": 821,
      "Ġj": 822,
      "head": 823,
      "play": 824,
      "Ġtype": 825,
      "ill": 826,
      "ace": 827,
      "22": 828,
      "\";": 829,
      "rem": 830,
      "Er": 831,
      "IT": 832,
      "Ġal": 833,
      "EN": 834,
      "50": 835,
      "########": 836,
      "https": 837,
      "Ġdata": 838,
      "ork": 839,
      "ĠIn": 840,
      "own": 841,
      "ory": 842,
      "group": 843,
      "ass": 844,
      "not": 845,
      "ute": 846,
      "Ġset": 847,
      "ast": 848,
      "Ġch": 849,
      "box": 850,
      "lement": 851,
      "Ġ::": 852,
      "Ġit": 853,
      "ger": 854,
      "lib": 855,
      "amp": 856,
      "mb": 857,
      "content": 858,
      "ton": 859,
      "app": 860,
      "ĠAs": 861,
      "čĊĠĠĠ": 862,
      "čĊĠĠĠĠĠĠĠ": 863,
      "adding": 864,
      "ia": 865,
      "MA": 866,
      "CT": 867,
      "min": 868,
      "Ar": 869,
      "RO": 870,
      "itle": 871,
      "75": 872,
      "Ġ00": 873,
      "Data": 874,
      "Ġthat": 875,
      "ms": 876,
      "Ġuse": 877,
      "btn": 878,
      "Ġint": 879,
      "width": 880,
      "}}": 881,
      "scri": 882,
      "DI": 883,
      "\"><": 884,
      "Ġnew": 885,
      "oid": 886,
      "odel": 887,
      "Ġvalue": 888,
      "reate": 889,
      "Ġfrom": 890,
      "60": 891,
      "ument": 892,
      "comp": 893,
      "Ġwh": 894,
      "40": 895,
      "Ġval": 896,
      "date": 897,
      "$(": 898,
      "utton": 899,
      "--------------------------------": 900,
      "Error": 901,
      "message": 902,
      "Ġby": 903,
      "Ċĉĉĉĉĉĉ": 904,
      "sub": 905,
      "pec": 906,
      "Ch": 907,
      "height": 908,
      "ne": 909,
      "../../": 910,
      "Ġ///": 911,
      "arget": 912,
      "vice": 913,
      "ĊĠĠĠĠĠĠĠĠĠĠĠĠĠĠĠĠĠĠĠĠĠĠĠ": 914,
      "ĠNULL": 915,
      "ph": 916,
      "yle": 917,
      "Ġid": 918,
      "icon": 919,
      "odule": 920,
      "Set": 921,
      "ĠThe": 922,
      "Par": 923,
      "):": 924,
      "tom": 925,
      "ION": 926,
      "web": 927,
      "so": 928,
      "eng": 929,
      "Ġfile": 930,
      "OT": 931,
      "local": 932,
      "Ġconst": 933,
      "List": 934,
      "js": 935,
      "Se": 936,
      "Ġelse": 937,
      "osition": 938,
      "Ġvar": 939,
      "new": 940,
      "gin": 941,
      "34": 942,
      "00000000": 943,
      "load": 944,
      "Comp": 945,
      ":#": 946,
      "class": 947,
      "ou": 948,
      "user": 949,
      "ry": 950,
      "iew": 951,
      "Ġk": 952,
      "ence": 953,
      "En": 954,
      "rite": 955,
      "tern": 956,
      "atic": 957,
      "ok": 958,
      "AG": 959,
      "ottom": 960,
      "28": 961,
      "input": 962,
      "omm": 963,
      "lex": 964,
      "UT": 965,
      "ta": 966,
      "Ġfunction": 967,
      "ost": 968,
      "Get": 969,
      "struct": 970,
      "link": 971,
      "before": 972,
      "AB": 973,
      "')": 974,
      "70": 975,
      "PY": 976,
      "ĠRe": 977,
      "55": 978,
      "label": 979,
      "IC": 980,
      "\\\"": 981,
      "90": 982,
      "table": 983,
      "umber": 984,
      "Ġdef": 985,
      "Ġat": 986,
      "Ġget": 987,
      "ĠTh": 988,
      "border": 989,
      "atus": 990,
      "ody": 991,
      "rol": 992,
      "rad": 993,
      "ask": 994,
      "23": 995,
      "ifi": 996,
      "cc": 997,
      "ak": 998,
      "================": 999,
      "Ġ&&": 1000,
      "pre": 1001,
      "File": 1002,
      "ithub": 1003,
      "Ġlet": 1004,
      "value": 1005,
      "ense": 1006,
      "à¤": 1007,
      "ache": 1008,
      "':": 1009,
      "****************": 1010,
      "uto": 1011,
      "ĠJ": 1012,
      "yn": 1013,
      "96": 1014,
      "ameter": 1015,
      "Ġ10": 1016,
      "param": 1017,
      "ark": 1018,
      "af": 1019,
      "lient": 1020,
      "stance": 1021,
      "github": 1022,
      "Ġthen": 1023,
      "000": 1024,
      ":\"": 1025,
      "Ke": 1026,
      "Ġpar": 1027,
      "Ġare": 1028,
      "ud": 1029,
      "unc": 1030,
      "read": 1031,
      "ĠINT": 1032,
      "Value": 1033,
      "78": 1034,
      "image": 1035,
      "ash": 1036,
      "ptions": 1037,
      "index": 1038,
      "ong": 1039,
      "config": 1040,
      "dir": 1041,
      "SER": 1042,
      "/*": 1043,
      "enu": 1044,
      "let": 1045,
      "Ġ20": 1046,
      "urre": 1047,
      "pect": 1048,
      "Ġres": 1049,
      "Ġcomp": 1050,
      "%%%%": 1051,
      "Ser": 1052,
      "Ġ,": 1053,
      "Ġstring": 1054,
      "sm": 1055,
      "arch": 1056,
      "Ġpr": 1057,
      "mov": 1058,
      "ush": 1059,
      "Ġbackground": 1060,
      "ĠEnd": 1061,
      "onse": 1062,
      "ox": 1063,
      "](": 1064,
      "ery": 1065,
      "MP": 1066,
      "of": 1067,
      "trib": 1068,
      "kit": 1069,
      "26": 1070,
      "time": 1071,
      "Un": 1072,
      "ww": 1073,
      "raw": 1074,
      "ree": 1075,
      "Ġtrue": 1076,
      "ake": 1077,
      "bottom": 1078,
      "ave": 1079,
      "Key": 1080,
      "($": 1081,
      "\");": 1082,
      "CH": 1083,
      "Ġborder": 1084,
      "ach": 1085,
      "86": 1086,
      "cri": 1087,
      "27": 1088,
      "ND": 1089,
      "čĊč": 1090,
      "include": 1091,
      "cho": 1092,
      "\"]": 1093,
      "abled": 1094,
      "ength": 1095,
      "org": 1096,
      "='": 1097,
      "Ġline": 1098,
      "ome": 1099,
      "Ġfalse": 1100,
      "block": 1101,
      "mm": 1102,
      "35": 1103,
      "29": 1104,
      "ature": 1105,
      "lean": 1106,
      "ues": 1107,
      "FF": 1108,
      "}\\": 1109,
      "Text": 1110,
      "KE": 1111,
      "indow": 1112,
      "background": 1113,
      "CO": 1114,
      "ps": 1115,
      "){": 1116,
      "arent": 1117,
      "(),": 1118,
      "gs": 1119,
      "ĊĠĠĠĠĠĠĠĠĠĠĠĠĠĠĠĠĠĠĠĠĠĠĠĠĠĠĠĠĠĠĠĠ": 1120,
      "transl": 1121,
      "space": 1122,
      "ject": 1123,
      "Ġtest": 1124,
      "~~": 1125,
      "Ġmargin": 1126,
      "webkit": 1127,
      "ĠIf": 1128,
      "Object": 1129,
      "Ġu": 1130,
      "Bu": 1131,
      "ee": 1132,
      "emp": 1133,
      "////": 1134,
      "21": 1135,
      "lat": 1136,
      "perty": 1137,
      "ng": 1138,
      "rame": 1139,
      "ba": 1140,
      "url": 1141,
      "ersion": 1142,
      "Ġ8": 1143,
      ",'": 1144,
      "44": 1145,
      "urrent": 1146,
      "It": 1147,
      "ssert": 1148,
      "fer": 1149,
      "36": 1150,
      "38": 1151,
      "path": 1152,
      "At": 1153,
      "AAAA": 1154,
      "LT": 1155,
      "Ġcolor": 1156,
      "Ġadd": 1157,
      "Ġdis": 1158,
      "++": 1159,
      "/>": 1160,
      "ĉĉĉĉ": 1161,
      "Ġ:=": 1162,
      "margin": 1163,
      "uld": 1164,
      "Ġ6": 1165,
      "for": 1166,
      "irst": 1167,
      "ccess": 1168,
      "Ġnull": 1169,
      "ĠMe": 1170,
      "AD": 1171,
      "ded": 1172,
      "inter": 1173,
      "%;": 1174,
      "quire": 1175,
      "AC": 1176,
      "count": 1177,
      "Ġarg": 1178,
      "enter": 1179,
      "red": 1180,
      "74": 1181,
      "76": 1182,
      "ĠSystem": 1183,
      "100": 1184,
      "Ġpublic": 1185,
      "Ġout": 1186,
      "ations": 1187,
      "Ġen": 1188,
      "Path": 1189,
      "Ġ!=": 1190,
      "${": 1191,
      "Ġ},": 1192,
      "ify": 1193,
      "ca": 1194,
      "font": 1195,
      "ET": 1196,
      "work": 1197,
      "AS": 1198,
      "Add": 1199,
      "loat": 1200,
      "Ġbu": 1201,
      "umn": 1202,
      "go": 1203,
      "');": 1204,
      "its": 1205,
      "Ġcan": 1206,
      "Ġnil": 1207,
      "ail": 1208,
      "button": 1209,
      "Test": 1210,
      "hover": 1211,
      "IL": 1212,
      "Ġerr": 1213,
      "Ġ;": 1214,
      "here": 1215,
      "ick": 1216,
      "DIR": 1217,
      "ector": 1218,
      "ilter": 1219,
      "che": 1220,
      "By": 1221,
      "map": 1222,
      "Me": 1223,
      "SERT": 1224,
      "01": 1225,
      "ui": 1226,
      ")*": 1227,
      "lob": 1228,
      "icense": 1229,
      "ound": 1230,
      "radi": 1231,
      "UR": 1232,
      "`,": 1233,
      "Ġli": 1234,
      "active": 1235,
      "02": 1236,
      "qual": 1237,
      "39": 1238,
      "ts": 1239,
      "onent": 1240,
      "Ġerror": 1241,
      "default": 1242,
      "ken": 1243,
      "Ġsh": 1244,
      "py": 1245,
      "down": 1246,
      "ĠGet": 1247,
      "max": 1248,
      "45": 1249,
      "gr": 1250,
      "48": 1251,
      "Item": 1252,
      "));": 1253,
      "ual": 1254,
      "Ġz": 1255,
      "ings": 1256,
      "iss": 1257,
      "Ġwe": 1258,
      "face": 1259,
      "ivate": 1260,
      "sum": 1261,
      "di": 1262,
      "ALU": 1263,
      "AN": 1264,
      "const": 1265,
      "Ġ__": 1266,
      "ustom": 1267,
      "src": 1268,
      "ner": 1269,
      "comm": 1270,
      "back": 1271,
      "header": 1272,
      "ific": 1273,
      "db": 1274,
      "._": 1275,
      "translation": 1276,
      "IG": 1277,
      "align": 1278,
      "Tr": 1279,
      "vel": 1280,
      "no": 1281,
      "br": 1282,
      "node": 1283,
      "{\\": 1284,
      "Event": 1285,
      "iter": 1286,
      "late": 1287,
      "ackage": 1288,
      "uth": 1289,
      "teger": 1290,
      "ĠString": 1291,
      "rop": 1292,
      "select": 1293,
      "wrap": 1294,
      "Ġtrans": 1295,
      "ool": 1296,
      "ffset": 1297,
      "56": 1298,
      "error": 1299,
      "menu": 1300,
      "over": 1301,
      "ample": 1302,
      "check": 1303,
      "doc": 1304,
      "sed": 1305,
      "].": 1306,
      "Ġcase": 1307,
      "\"></": 1308,
      "info": 1309,
      "().": 1310,
      "Ġro": 1311,
      "Time": 1312,
      "word": 1313,
      "by": 1314,
      "lin": 1315,
      "LO": 1316,
      "Ġcall": 1317,
      "Info": 1318,
      "Ġall": 1319,
      "sign": 1320,
      "old": 1321,
      "\"/>": 1322,
      "Ġpadding": 1323,
      "ions": 1324,
      "79": 1325,
      "(&": 1326,
      "ld": 1327,
      "ĊĠĠĠĠĠĠĠĠĠĠĠĠĠ": 1328,
      "Ġup": 1329,
      "Co": 1330,
      "pl": 1331,
      "irect": 1332,
      "Int": 1333,
      "Of": 1334,
      "ie": 1335,
      "PI": 1336,
      "ys": 1337,
      "ainer": 1338,
      "arn": 1339,
      "ĠÐ": 1340,
      "ug": 1341,
      "TR": 1342,
      "pan": 1343,
      "last": 1344,
      "})": 1345,
      "aw": 1346,
      "foc": 1347,
      "valid": 1348,
      "thod": 1349,
      "Ġtext": 1350,
      "ED": 1351,
      "start": 1352,
      "ĊĊĠĠĠĠĠĠĠĠĠĠĠ": 1353,
      "ALUES": 1354,
      "Ġfont": 1355,
      "State": 1356,
      "Code": 1357,
      "body": 1358,
      "ĊĠĠĠĠĠĠĠĠĠĠĠĠĠĠĠĠĠĠĠĠĠĠĠĠĠĠĠ": 1359,
      "ock": 1360,
      "ĠINTO": 1361,
      "ALL": 1362,
      "card": 1363,
      "action": 1364,
      "INSERT": 1365,
      "bl": 1366,
      "opy": 1367,
      "Val": 1368,
      "ep": 1369,
      "])": 1370,
      "[\"": 1371,
      "\"\"": 1372,
      "ĠX": 1373,
      "PE": 1374,
      "the": 1375,
      "ream": 1376,
      "Ġwidth": 1377,
      "Ġwill": 1378,
      "lace": 1379,
      "Ġ||": 1380,
      "EX": 1381,
      "lete": 1382,
      "05": 1383,
      "Le": 1384,
      "Ġsub": 1385,
      "ical": 1386,
      "Ġcontent": 1387,
      "ics": 1388,
      "An": 1389,
      "Ġar": 1390,
      "cl": 1391,
      "stall": 1392,
      "ception": 1393,
      "focus": 1394,
      "77": 1395,
      "Form": 1396,
      "we": 1397,
      "flex": 1398,
      "ternal": 1399,
      "ĠSub": 1400,
      "oint": 1401,
      "ux": 1402,
      "bs": 1403,
      "Config": 1404,
      "Ġresult": 1405,
      "Sh": 1406,
      "################": 1407,
      "ymb": 1408,
      "98": 1409,
      "OL": 1410,
      "];": 1411,
      "Size": 1412,
      "Ġlist": 1413,
      "Qu": 1414,
      "navbar": 1415,
      "Ġcol": 1416,
      "ĠPro": 1417,
      "ymbol": 1418,
      "Th": 1419,
      "200": 1420,
      "script": 1421,
      "from": 1422,
      "cript": 1423,
      "Ġkey": 1424,
      "cond": 1425,
      "cre": 1426,
      "push": 1427,
      "ĠK": 1428,
      "oo": 1429,
      "object": 1430,
      "\\\\": 1431,
      "\",\"": 1432,
      "PYG": 1433,
      "Ġvoid": 1434,
      "lg": 1435,
      "Not": 1436,
      "char": 1437,
      ">.": 1438,
      "pen": 1439,
      "CL": 1440,
      "title": 1441,
      "};": 1442,
      "display": 1443,
      "padding": 1444,
      "@@": 1445,
      "call": 1446,
      "Ġyou": 1447,
      "pos": 1448,
      "lobal": 1449,
      "itial": 1450,
      "eturn": 1451,
      "ATE": 1452,
      "Ġinclude": 1453,
      "mary": 1454,
      "ov": 1455,
      "gba": 1456,
      "\\_": 1457,
      "95": 1458,
      "AME": 1459,
      "&&": 1460,
      "UN": 1461,
      ")/": 1462,
      "lection": 1463,
      "88": 1464,
      "inal": 1465,
      "ader": 1466,
      "child": 1467,
      "Ð¾": 1468,
      "Out": 1469,
      "ĠVALUES": 1470,
      "ere": 1471,
      "eature": 1472,
      "ync": 1473,
      "led": 1474,
      "FA": 1475,
      "Ġco": 1476,
      "ise": 1477,
      "He": 1478,
      "transform": 1479,
      "Met": 1480,
      "Or": 1481,
      "Ġ/*": 1482,
      "ĠNew": 1483,
      "())": 1484,
      "03": 1485,
      "Ġapp": 1486,
      "gt": 1487,
      "bin": 1488,
      "ffer": 1489,
      "void": 1490,
      "ĠEx": 1491,
      "net": 1492,
      "roll": 1493,
      "using": 1494,
      "my": 1495,
      "base": 1496,
      "Ġtitle": 1497,
      "reg": 1498,
      "ommand": 1499,
      "disabled": 1500,
      "view": 1501,
      "api": 1502,
      "Ġspec": 1503,
      "IS": 1504,
      "Col": 1505,
      "ich": 1506,
      "(:": 1507,
      "style": 1508,
      "Ġtime": 1509,
      "Array": 1510,
      "á»": 1511,
      "Ġinput": 1512,
      "___": 1513,
      "gg": 1514,
      "Ġser": 1515,
      "vers": 1516,
      "other": 1517,
      "ait": 1518,
      "try": 1519,
      "raph": 1520,
      "pi": 1521,
      "Ġ${": 1522,
      "Ġ7": 1523,
      "46": 1524,
      "iable": 1525,
      "begin": 1526,
      "istr": 1527,
      "Ð°": 1528,
      "core": 1529,
      "Ġmy": 1530,
      "ates": 1531,
      "mod": 1532,
      "uration": 1533,
      "ĠLicense": 1534,
      "ĠNOT": 1535,
      "';": 1536,
      "ĊĠĠĠĠĠĠ": 1537,
      "field": 1538,
      "ĠCon": 1539,
      "Node": 1540,
      "Des": 1541,
      "Ġno": 1542,
      "tribute": 1543,
      "ä¸": 1544,
      "location": 1545,
      "Request": 1546,
      "ĠThis": 1547,
      "FL": 1548,
      "''": 1549,
      "ler": 1550,
      "37": 1551,
      "vert": 1552,
      "echo": 1553,
      "mit": 1554,
      "čĊĠ": 1555,
      "img": 1556,
      "nel": 1557,
      "OP": 1558,
      "85": 1559,
      "cal": 1560,
      "Ġ($": 1561,
      "make": 1562,
      "Field": 1563,
      "04": 1564,
      "func": 1565,
      "position": 1566,
      "press": 1567,
      "define": 1568,
      "Map": 1569,
      "8010": 1570,
      "page": 1571,
      "As": 1572,
      "ider": 1573,
      "ĠĠĠĠĠĠĠĠĠ": 1574,
      "AM": 1575,
      "true": 1576,
      "((": 1577,
      "mt": 1578,
      "roup": 1579,
      "Ġsize": 1580,
      "Ġchar": 1581,
      "Color": 1582,
      "enc": 1583,
      "Ðµ": 1584,
      "su": 1585,
      "Ġfn": 1586,
      "NULL": 1587,
      "tx": 1588,
      "build": 1589,
      "nb": 1590,
      "ined": 1591,
      "ĠĠĠĠĠĠĠĠĠĠ": 1592,
      "Ġstd": 1593,
      "andle": 1594,
      "flow": 1595,
      "ible": 1596,
      "Loc": 1597,
      "!(": 1598,
      "err": 1599,
      "BU": 1600,
      "tab": 1601,
      "radius": 1602,
      "ob": 1603,
      "idd": 1604,
      "ĀĀ": 1605,
      "ses": 1606,
      "result": 1607,
      "ified": 1608,
      "ilder": 1609,
      "The": 1610,
      "06": 1611,
      "System": 1612,
      "Ġ..": 1613,
      "0000000000000000": 1614,
      "Ã£": 1615,
      "Ġfield": 1616,
      "Ġpub": 1617,
      "eq": 1618,
      "do": 1619,
      "control": 1620,
      "['": 1621,
      "čĊĠĠĠĠĠĠĠĠĠĠĠ": 1622,
      "ĠSt": 1623,
      "hel": 1624,
      "Ġper": 1625,
      "Ġobject": 1626,
      "Ġassert": 1627,
      "App": 1628,
      "Ġdisplay": 1629,
      "drop": 1630,
      "ils": 1631,
      "ABLE": 1632,
      "med": 1633,
      "ava": 1634,
      "Ġdefault": 1635,
      "tt": 1636,
      "ponse": 1637,
      ".</": 1638,
      "hould": 1639,
      "mut": 1640,
      "Result": 1641,
      "print": 1642,
      "Ġtarget": 1643,
      "ING": 1644,
      "Ġ100": 1645,
      "VER": 1646,
      "End": 1647,
      "49": 1648,
      "Ġne": 1649,
      "LI": 1650,
      "ormal": 1651,
      "!!": 1652,
      "31": 1653,
      "section": 1654,
      "59": 1655,
      "lication": 1656,
      "Ġq": 1657,
      "Up": 1658,
      "Index": 1659,
      "Ġrequest": 1660,
      "ale": 1661,
      "Ġtable": 1662,
      "Ġ?": 1663,
      "Ġform": 1664,
      "89": 1665,
      ",-": 1666,
      "Ġlocal": 1667,
      "Ġsrc": 1668,
      "length": 1669,
      "ĠĠĠĠĠĠĠĠĠĠĠĠĠ": 1670,
      "Ġstatic": 1671,
      "Ġ<<": 1672,
      "ict": 1673,
      "xl": 1674,
      "ĠDim": 1675,
      "Ġpre": 1676,
      "side": 1677,
      "ĠIN": 1678,
      "());": 1679,
      "FI": 1680,
      "ĠĠĠĠĠĠĠĠĠĠĠ": 1681,
      "Ġ);": 1682,
      "ansp": 1683,
      "\"),": 1684,
      "ĠNot": 1685,
      "upport": 1686,
      "Is": 1687,
      "Ġsol": 1688,
      "none": 1689,
      "09": 1690,
      "ĠDE": 1691,
      "INT": 1692,
      "json": 1693,
      "dx": 1694,
      "QU": 1695,
      "cle": 1696,
      "For": 1697,
      "Ġ\"\\": 1698,
      "XX": 1699,
      "ULT": 1700,
      "summary": 1701,
      "mat": 1702,
      "sk": 1703,
      "Box": 1704,
      "Ġauto": 1705,
      "PS": 1706,
      "ster": 1707,
      "ell": 1708,
      "ĠIF": 1709,
      "uble": 1710,
      "model": 1711,
      "Al": 1712,
      "On": 1713,
      "pected": 1714,
      "module": 1715,
      "CON": 1716,
      "Class": 1717,
      "65": 1718,
      "ally": 1719,
      "///": 1720,
      "Base": 1721,
      "query": 1722,
      "08": 1723,
      "ĊĊĠĠĠĠĠ": 1724,
      "ocument": 1725,
      "rix": 1726,
      "Context": 1727,
      "null": 1728,
      "Group": 1729,
      "Ċĉĉĉĉĉ": 1730,
      "num": 1731,
      "point": 1732,
      "Ġimp": 1733,
      "clo": 1734,
      "ĠRE": 1735,
      "Ġnone": 1736,
      "Ġhas": 1737,
      "place": 1738,
      "%%%%%%%%": 1739,
      "Element": 1740,
      "CC": 1741,
      "Ġwhere": 1742,
      "'s": 1743,
      "Message": 1744,
      "resp": 1745,
      "Im": 1746,
      "create": 1747,
      "Ġcode": 1748,
      "Ġrgba": 1749,
      "HE": 1750,
      "ĊĠĠĠĠĠĠĠĠĠĠĠĠĠĠĠĠĠĠĠĠĠĠĠĠĠĠĠĠĠĠĠĠĠĠĠĠĠĠĠĠ": 1751,
      "fin": 1752,
      "Response": 1753,
      "std": 1754,
      "light": 1755,
      "adow": 1756,
      "Ġheight": 1757,
      "tool": 1758,
      "mpty": 1759,
      "mem": 1760,
      "Ġnumber": 1761,
      "state": 1762,
      "temp": 1763,
      "tag": 1764,
      "Ð¸": 1765,
      "Window": 1766,
      "ference": 1767,
      "fr": 1768,
      "With": 1769,
      "Ġvalues": 1770,
      "ï¼": 1771,
      "hy": 1772,
      "Ġso": 1773,
      "07": 1774,
      "Ġcheck": 1775,
      "son": 1776,
      "ution": 1777,
      "reak": 1778,
      "Ġ9": 1779,
      "df": 1780,
      "MAKE": 1781,
      "gra": 1782,
      "target": 1783,
      "Ġover": 1784,
      "Ġlo": 1785,
      "9999": 1786,
      "fff": 1787,
      "ql": 1788,
      "Ġwhen": 1789,
      "``": 1790,
      "Ġ+=": 1791,
      "Ġpath": 1792,
      "Model": 1793,
      "cr": 1794,
      "acity": 1795,
      "Log": 1796,
      "hing": 1797,
      "ameters": 1798,
      "Ġhave": 1799,
      "SS": 1800,
      "cur": 1801,
      "cast": 1802,
      "ager": 1803,
      "ĠDe": 1804,
      "FLAG": 1805,
      "255": 1806,
      "Ġused": 1807,
      "Man": 1808,
      "du": 1809,
      "www": 1810,
      "static": 1811,
      "čĊĉ": 1812,
      "ĠSet": 1813,
      "Ġstr": 1814,
      "wh": 1815,
      "3333": 1816,
      "ik": 1817,
      "Ġblock": 1818,
      "Line": 1819,
      "XÃ£": 1820,
      "Table": 1821,
      "cord": 1822,
      "ices": 1823,
      "Str": 1824,
      "sw": 1825,
      "Ġinter": 1826,
      "quot": 1827,
      "sv": 1828,
      "tings": 1829,
      "ative": 1830,
      "...": 1831,
      "bf": 1832,
      "pend": 1833,
      "sd": 1834,
      "New": 1835,
      "Ġ],": 1836,
      "Ġ15": 1837,
      "Ġnode": 1838,
      "tes": 1839,
      "ĊĠĠĠĠĠĠĠĠĠĠĠĠ": 1840,
      "DB": 1841,
      "Exception": 1842,
      ">,": 1843,
      "air": 1844,
      "83": 1845,
      "ĠY": 1846,
      "abel": 1847,
      "custom": 1848,
      "Imp": 1849,
      "IM": 1850,
      "move": 1851,
      "client": 1852,
      "ÑĤ": 1853,
      "lags": 1854,
      "']": 1855,
      "duct": 1856,
      "cd": 1857,
      "sert": 1858,
      "DO": 1859,
      "ware": 1860,
      "obj": 1861,
      "version": 1862,
      "SP": 1863,
      "ifier": 1864,
      "cf": 1865,
      "Ġprint": 1866,
      "IP": 1867,
      "ility": 1868,
      "inline": 1869,
      "}{\\": 1870,
      "Ġmax": 1871,
      "hed": 1872,
      "package": 1873,
      "ENT": 1874,
      "User": 1875,
      "AP": 1876,
      "open": 1877,
      "41": 1878,
      "Ġ/**": 1879,
      "ams": 1880,
      "shadow": 1881,
      "ift": 1882,
      "EST": 1883,
      "Ġstruct": 1884,
      "!--": 1885,
      "Service": 1886,
      "Ġrequire": 1887,
      "lang": 1888,
      "lease": 1889,
      "ular": 1890,
      "pop": 1891,
      "Ġlog": 1892,
      "ĠReturn": 1893,
      "apt": 1894,
      "Var": 1895,
      "first": 1896,
      "////////": 1897,
      "Ġconfig": 1898,
      "Ġ12": 1899,
      "scription": 1900,
      "Ġ('": 1901,
      ":-": 1902,
      "67": 1903,
      "Ġany": 1904,
      "42": 1905,
      "Ġtop": 1906,
      "lt": 1907,
      "Ġla": 1908,
      "center": 1909,
      "57": 1910,
      "ateg": 1911,
      "older": 1912,
      "Ġorg": 1913,
      "ĊĠĠĠĠĠĠĠĠĠĠĠĠĠĠĠĠĠ": 1914,
      "aint": 1915,
      "Ġwhich": 1916,
      "nbsp": 1917,
      "xmm": 1918,
      "ized": 1919,
      "event": 1920,
      "Resource": 1921,
      "Dis": 1922,
      "linux": 1923,
      "Ġshould": 1924,
      "ĠCO": 1925,
      "================================": 1926,
      "Input": 1927,
      ")]": 1928,
      "Ġ-->": 1929,
      "********************************": 1930,
      "rt": 1931,
      "container": 1932,
      "47": 1933,
      "Ref": 1934,
      "CM": 1935,
      "ptr": 1936,
      "gener": 1937,
      ")+": 1938,
      "ĠTest": 1939,
      "Ð½": 1940,
      "ãģ": 1941,
      ",$": 1942,
      "ĠTr": 1943,
      "args": 1944,
      "false": 1945,
      "dropdown": 1946,
      "ci": 1947,
      "tra": 1948,
      "hod": 1949,
      "xx": 1950,
      "Ġuser": 1951,
      "Ġcom": 1952,
      "58": 1953,
      "ĠFunction": 1954,
      "FAULT": 1955,
      "ĊĠĠĠĠĠĠĠĠĠĠĠĠĠĠĠĠĠĠĠĠĠĠĠĠĠĠĠĠĠĠĠ": 1956,
      "FLAGS": 1957,
      "Ġonly": 1958,
      "sg": 1959,
      "Ġstate": 1960,
      "Ġleft": 1961,
      "icro": 1962,
      "Equal": 1963,
      "Ġposition": 1964,
      "Pr": 1965,
      "vis": 1966,
      "SET": 1967,
      "cp": 1968,
      "jo": 1969,
      "ĠUn": 1970,
      "Status": 1971,
      "man": 1972,
      "Ġ16": 1973,
      "SION": 1974,
      "~~~~": 1975,
      "Ġmethod": 1976,
      "lot": 1977,
      "(%": 1978,
      "search": 1979,
      "peration": 1980,
      "frame": 1981,
      "Ag": 1982,
      "itor": 1983,
      "Reg": 1984,
      "bit": 1985,
      "No": 1986,
      "Version": 1987,
      "Ġ[\"": 1988,
      "da": 1989,
      "ogle": 1990,
      "ret": 1991,
      "auto": 1992,
      "miss": 1993,
      "len": 1994,
      "css": 1995,
      ":\"\\": 1996,
      "eax": 1997,
      "Ġoutput": 1998,
      "Ġright": 1999,
      "UB": 2000,
      "arning": 2001,
      "dt": 2002,
      "cept": 2003,
      "Ġprov": 2004,
      "CE": 2005,
      "ARG": 2006,
      "Ġstyle": 2007,
      "status": 2008,
      "public": 2009,
      "Ġ'',": 2010,
      "Ġstart": 2011,
      "ero": 2012,
      "ĊĊĉ": 2013,
      "ities": 2014,
      "ingle": 2015,
      "Ġread": 2016,
      "ĊĠĠĠĠĠĠĠĠĠĠĠĠĠĠĠĠĠĠĠĠĠĠĠĠĠĠĠĠĠĠĠĠĠĠĠ": 2017,
      "with": 2018,
      "pert": 2019,
      "From": 2020,
      "Ġunder": 2021,
      "TH": 2022,
      "Lo": 2023,
      "Ġmay": 2024,
      "OS": 2025,
      "ension": 2026,
      "ai": 2027,
      "main": 2028,
      "[]": 2029,
      "andler": 2030,
      "endif": 2031,
      "'t": 2032,
      "ĠType": 2033,
      "olic": 2034,
      "case": 2035,
      "Ġinto": 2036,
      "igh": 2037,
      "Ġrun": 2038,
      "ĊĠĠĠĠĠĠĠĠĠĠĠĠĠĠ": 2039,
      "ization": 2040,
      "CK": 2041,
      "home": 2042,
      "pass": 2043,
      "43": 2044,
      "ML": 2045,
      "ns": 2046,
      "Ad": 2047,
      "Ġother": 2048,
      "Ġone": 2049,
      ">(": 2050,
      "ĠAr": 2051,
      "ister": 2052,
      "RA": 2053,
      "media": 2054,
      "Ġ\"/": 2055,
      "ĠEr": 2056,
      "{}": 2057,
      "bp": 2058,
      "Ġarray": 2059,
      "cpp": 2060,
      "MO": 2061,
      "Ġsolid": 2062,
      "has": 2063,
      "Be": 2064,
      "nection": 2065,
      "Ġmod": 2066,
      "Label": 2067,
      "Sub": 2068,
      "ÑĢ": 2069,
      "rit": 2070,
      "oolean": 2071,
      "Count": 2072,
      "Inter": 2073,
      "ape": 2074,
      ",%": 2075,
      "cry": 2076,
      "output": 2077,
      "NAME": 2078,
      "Ġgener": 2079,
      "Ġsource": 2080,
      "Ġbool": 2081,
      "Ġ34": 2082,
      "Ġsu": 2083,
      "Ġversion": 2084,
      "ATH": 2085,
      "ĠPublic": 2086,
      "Ġcurrent": 2087,
      "perties": 2088,
      "Ġ]": 2089,
      "Ġmessage": 2090,
      "Property": 2091,
      "png": 2092,
      "(.": 2093,
      "{-": 2094,
      "soft": 2095,
      ">&": 2096,
      "Source": 2097,
      "lable": 2098,
      "View": 2099,
      "ren": 2100,
      "idden": 2101,
      "->{": 2102,
      "(-": 2103,
      "ĠCON": 2104,
      "filter": 2105,
      "column": 2106,
      "gress": 2107,
      "Query": 2108,
      "instance": 2109,
      "PRO": 2110,
      "ily": 2111,
      ">>": 2112,
      "pub": 2113,
      "ats": 2114,
      "iled": 2115,
      "kind": 2116,
      "ansparent": 2117,
      "MT": 2118,
      ",\"": 2119,
      "after": 2120,
      "Module": 2121,
      "KEY": 2122,
      "68": 2123,
      "Function": 2124,
      "69": 2125,
      "Ġ[]": 2126,
      "Ġmov": 2127,
      "utes": 2128,
      "itch": 2129,
      ";</": 2130,
      "----------------------------------------------------------------": 2131,
      "ove": 2132,
      "Fact": 2133,
      "=\"/": 2134,
      "uage": 2135,
      ")=": 2136,
      "ynt": 2137,
      "items": 2138,
      "ssion": 2139,
      "Instance": 2140,
      "ride": 2141,
      "request": 2142,
      "53": 2143,
      "annel": 2144,
      "part": 2145,
      "offset": 2146,
      "dev": 2147,
      "entry": 2148,
      "ĠRes": 2149,
      "TO": 2150,
      "'),(": 2151,
      "env": 2152,
      "ERR": 2153,
      "uthor": 2154,
      "options": 2155,
      "pace": 2156,
      "MENT": 2157,
      "istrib": 2158,
      "formation": 2159,
      "lag": 2160,
      "ank": 2161,
      "cor": 2162,
      "={": 2163,
      "52": 2164,
      "tot": 2165,
      "write": 2166,
      "IO": 2167,
      "Output": 2168,
      "Ġprivate": 2169,
      "}/": 2170,
      "Trans": 2171,
      "opt": 2172,
      "72": 2173,
      "sol": 2174,
      "ater": 2175,
      "current": 2176,
      "imary": 2177,
      "Check": 2178,
      "Ġ((": 2179,
      "Ġ36": 2180,
      "à¥": 2181,
      "option": 2182,
      "ctx": 2183,
      "Client": 2184,
      "Tra": 2185,
      "bg": 2186,
      "Date": 2187,
      "cs": 2188,
      "refix": 2189,
      "layer": 2190,
      "INE": 2191,
      "Block": 2192,
      "Image": 2193,
      "resent": 2194,
      "(_": 2195,
      "share": 2196,
      "Ġ'''": 2197,
      "Ġresp": 2198,
      "panel": 2199,
      "Ã¡": 2200,
      "ĠClass": 2201,
      "Ġpart": 2202,
      "Ġbase": 2203,
      "ments": 2204,
      "gre": 2205,
      "Ġusing": 2206,
      "context": 2207,
      "level": 2208,
      "fe": 2209,
      "aa": 2210,
      "next": 2211,
      "foot": 2212,
      "Ġindex": 2213,
      "Token": 2214,
      "Ġobj": 2215,
      "TY": 2216,
      "73": 2217,
      "bb": 2218,
      "Ġbuild": 2219,
      "Ñģ": 2220,
      "FO": 2221,
      "=\"../../": 2222,
      "Call": 2223,
      "cope": 2224,
      "çļ": 2225,
      "thon": 2226,
      "sor": 2227,
      "Per": 2228,
      "EG": 2229,
      "---": 2230,
      "||": 2231,
      "pc": 2232,
      ";;": 2233,
      "Ġmin": 2234,
      "Ġmust": 2235,
      "Create": 2236,
      "ym": 2237,
      "CRE": 2238,
      "Ġ\"$": 2239,
      "Ro": 2240,
      "çļĦ": 2241,
      "Mem": 2242,
      "VE": 2243,
      "irectory": 2244,
      "ĠĠĠĠĠĠĠĠĠĠĠĠĠĠĠĠĠĠĠĠĠĠĠĠĠĠĠĠĠĠĠĠĠĠĠĠĠĠĠĠĠĠĠĠĠĠĠĠĠĠĠĠĠĠĠĠĠĠĠĠĠĠĠĠ": 2245,
      "ĠOR": 2246,
      "exp": 2247,
      "54": 2248,
      "ĊĠĠĠĠĠĠĠĠĠĠ": 2249,
      "HO": 2250,
      "áº": 2251,
      "Ġreg": 2252,
      "weight": 2253,
      "Gener": 2254,
      "Ð¾Ð": 2255,
      "WOR": 2256,
      "adata": 2257,
      "orage": 2258,
      "84": 2259,
      "dark": 2260,
      ")}": 2261,
      "Ut": 2262,
      "az": 2263,
      "togg": 2264,
      "format": 2265,
      "Ġcreate": 2266,
      "Control": 2267,
      "Ġ};": 2268,
      "ĠEX": 2269,
      "util": 2270,
      "Ġtra": 2271,
      "ctor": 2272,
      "Ġad": 2273,
      "olicy": 2274,
      "CA": 2275,
      "las": 2276,
      "amily": 2277,
      "TT": 2278,
      "ume": 2279,
      "signed": 2280,
      "omain": 2281,
      "pression": 2282,
      "apache": 2283,
      "assert": 2284,
      "bug": 2285,
      "Method": 2286,
      "untime": 2287,
      "Ġhttp": 2288,
      "Ġ{}": 2289,
      "init": 2290,
      "xml": 2291,
      "iag": 2292,
      "PH": 2293,
      "Link": 2294,
      "Point": 2295,
      "\"}.": 2296,
      "ollow": 2297,
      "Ċĉĉĉĉĉĉĉ": 2298,
      "Ġ(!": 2299,
      "lick": 2300,
      "NS": 2301,
      "ĠThen": 2302,
      "Ġmodel": 2303,
      "\\\";": 2304,
      "Ġmake": 2305,
      "....": 2306,
      "Kind": 2307,
      "ender": 2308,
      "yntax": 2309,
      "pg": 2310,
      "ating": 2311,
      "Ġwrite": 2312,
      "wo": 2313,
      "And": 2314,
      "icrosoft": 2315,
      ":\\\"": 2316,
      "xy": 2317,
      "ĊĠĠĠĠĠĠĠĠĠĠĠĠĠĠĠĠĠĠĠĠ": 2318,
      "([": 2319,
      "hs": 2320,
      "Ġac": 2321,
      "uments": 2322,
      "usr": 2323,
      "ommon": 2324,
      "ĠQ": 2325,
      "ename": 2326,
      "Default": 2327,
      "perator": 2328,
      "post": 2329,
      "float": 2330,
      "atrix": 2331,
      "pto": 2332,
      "ĠĠĠĠĠĠĠĠĠĠĠĠ": 2333,
      "ification": 2334,
      "ince": 2335,
      "Ġwas": 2336,
      "ian": 2337,
      "Ġinstance": 2338,
      "87": 2339,
      "Lay": 2340,
      "Action": 2341,
      "export": 2342,
      "Ġ11": 2343,
      "Ġlib": 2344,
      "component": 2345,
      "lugin": 2346,
      "ĠĠĠĠĠĠĠĠĠĠĠĠĠĠĠĠĠĠĠ": 2347,
      "IF": 2348,
      "Attribute": 2349,
      "Ġmatch": 2350,
      "Ġcal": 2351,
      "straint": 2352,
      "Ġresource": 2353,
      "oto": 2354,
      "Ġwork": 2355,
      "server": 2356,
      ",,": 2357,
      "}\"": 2358,
      "Ġevent": 2359,
      "cb": 2360,
      "Options": 2361,
      "\":\"": 2362,
      "*/": 2363,
      "ILD": 2364,
      "MS": 2365,
      "(*": 2366,
      "spec": 2367,
      "grid": 2368,
      "Ġ50": 2369,
      "less": 2370,
      "Ġ\"${": 2371,
      "Ġcopy": 2372,
      "transition": 2373,
      "ĠCh": 2374,
      "Draw": 2375,
      "ĠData": 2376,
      "tmp": 2377,
      "php": 2378,
      "Symbol": 2379,
      "6666": 2380,
      "method": 2381,
      "US": 2382,
      "Ġmap": 2383,
      "Button": 2384,
      "ding": 2385,
      "čĊĠĠĠĠĠĠĠĠĠĠĠĠĠĠĠ": 2386,
      "ĠNone": 2387,
      "CR": 2388,
      "ning": 2389,
      "coin": 2390,
      "Content": 2391,
      "ãĤ": 2392,
      "qt": 2393,
      "rows": 2394,
      "ensor": 2395,
      "UP": 2396,
      "rid": 2397,
      ";-": 2398,
      "array": 2399,
      "ĠDEFAULT": 2400,
      "æľ": 2401,
      "host": 2402,
      "Ġpo": 2403,
      "=>": 2404,
      "ĠPr": 2405,
      "ĠInt": 2406,
      "Ġmore": 2407,
      "CP": 2408,
      "lative": 2409,
      "VERSION": 2410,
      "Ġop": 2411,
      "SON": 2412,
      "63": 2413,
      "LIB": 2414,
      "UM": 2415,
      "Ġ(\"": 2416,
      "ildcard": 2417,
      "ĠFor": 2418,
      "toggle": 2419,
      "etwork": 2420,
      "\"))": 2421,
      "TER": 2422,
      "atab": 2423,
      "âĢ": 2424,
      "ï¼Į": 2425,
      "Frame": 2426,
      "cm": 2427,
      "entity": 2428,
      "Start": 2429,
      "cmake": 2430,
      "serv": 2431,
      "Ġ#[": 2432,
      "Files": 2433,
      "({": 2434,
      "Ã©": 2435,
      "Ġext": 2436,
      "cat": 2437,
      "=\"#": 2438,
      "Ġformat": 2439,
      "Ġ33": 2440,
      "]]": 2441,
      "Ġbut": 2442,
      "iler": 2443,
      "Tok": 2444,
      "Ġelement": 2445,
      "sl": 2446,
      "ĠAdd": 2447,
      "idget": 2448,
      "Windows": 2449,
      "Ed": 2450,
      "NO": 2451,
      "Ġnum": 2452,
      "ĠĠĠĠĠĠĠĠĠĠĠĠĠĠĠ": 2453,
      ")</": 2454,
      "lem": 2455,
      "ĠZ": 2456,
      "Ġfa": 2457,
      "nect": 2458,
      "ting": 2459,
      "can": 2460,
      "Ġmodule": 2461,
      "/**": 2462,
      "All": 2463,
      "run": 2464,
      "Command": 2465,
      "theme": 2466,
      "cmd": 2467,
      "TE": 2468,
      "atabase": 2469,
      "Ġ14": 2470,
      "Write": 2471,
      "Style": 2472,
      "Arg": 2473,
      "pack": 2474,
      "Ġfirst": 2475,
      "way": 2476,
      "imation": 2477,
      "ward": 2478,
      "AAAAAAAA": 2479,
      "ãĢ": 2480,
      "rl": 2481,
      "byte": 2482,
      "Ġman": 2483,
      "cy": 2484,
      "SO": 2485,
      "CMAKE": 2486,
      "Parameter": 2487,
      "Ġflex": 2488,
      "show": 2489,
      "parent": 2490,
      "DD": 2491,
      "ĠComp": 2492,
      "ĠSh": 2493,
      "Act": 2494,
      "ebug": 2495,
      "uted": 2496,
      "ixed": 2497,
      "97": 2498,
      "ains": 2499,
      "*>": 2500,
      "IZ": 2501,
      "My": 2502,
      "wildcard": 2503,
      "ef": 2504,
      "inner": 2505,
      "ãĥ": 2506,
      "gen": 2507,
      "pm": 2508,
      "mark": 2509,
      "ther": 2510,
      "Component": 2511,
      "Ġgo": 2512,
      "verse": 2513,
      "2020": 2514,
      "command": 2515,
      "Ġinstall": 2516,
      "she": 2517,
      "Ġ});": 2518,
      "åı": 2519,
      "Ġinteger": 2520,
      "Change": 2521,
      "BUILD": 2522,
      "ĊĠĠĠĠĠĠĠĠĠĠĠĠĠĠĠĠĠĠĠĠĠĠĠĠĠĠĠĠĠĠĠĠĠĠĠĠĠĠĠ": 2523,
      "ĠTH": 2524,
      "success": 2525,
      "ish": 2526,
      "licit": 2527,
      "sidebar": 2528,
      "Ġecho": 2529,
      "Ġvariable": 2530,
      "Format": 2531,
      "store": 2532,
      "Ġcontext": 2533,
      "ĠOF": 2534,
      "ĀĀĀĀ": 2535,
      "Ġchange": 2536,
      "afe": 2537,
      "token": 2538,
      "icle": 2539,
      "rary": 2540,
      "Ġtemp": 2541,
      "imple": 2542,
      "PATH": 2543,
      "ons": 2544,
      "ĠSome": 2545,
      "Select": 2546,
      "51": 2547,
      "ĠSe": 2548,
      "EQ": 2549,
      "acter": 2550,
      "Tag": 2551,
      "Ġurl": 2552,
      "ftware": 2553,
      "94": 2554,
      "ORT": 2555,
      "\").": 2556,
      "draw": 2557,
      "iff": 2558,
      "Ġ~": 2559,
      "62": 2560,
      "Ġargs": 2561,
      "Builder": 2562,
      "ultip": 2563,
      "number": 2564,
      "second": 2565,
      "ĠAS": 2566,
      "Dec": 2567,
      "Number": 2568,
      "PO": 2569,
      "refer": 2570,
      "vo": 2571,
      "If": 2572,
      "Ġ()": 2573,
      "aws": 2574,
      "rag": 2575,
      "CB": 2576,
      "ĠEND": 2577,
      "asic": 2578,
      "attr": 2579,
      "scss": 2580,
      "iven": 2581,
      "}}\\": 2582,
      "gram": 2583,
      "Ġel": 2584,
      "CXX": 2585,
      "82": 2586,
      "Ġfinal": 2587,
      "fter": 2588,
      "Ġ\"\"": 2589,
      "{\"": 2590,
      "fn": 2591,
      "tsd": 2592,
      "Ġact": 2593,
      "AGE": 2594,
      "Ġmut": 2595,
      "ds": 2596,
      "ialog": 2597,
      "msg": 2598,
      "CS": 2599,
      "93": 2600,
      "layout": 2601,
      "ins": 2602,
      "arrow": 2603,
      "svg": 2604,
      "help": 2605,
      "Spec": 2606,
      "Ġcenter": 2607,
      "Ġus": 2608,
      "ower": 2609,
      "Read": 2610,
      "Ġcommand": 2611,
      "family": 2612,
      "Ġì": 2613,
      "ier": 2614,
      "Ġbreak": 2615,
      "Ġfollow": 2616,
      "tributes": 2617,
      "append": 2618,
      "00000000000000000000000000000000": 2619,
      "Ġyour": 2620,
      ".\"": 2621,
      "ESS": 2622,
      "Server": 2623,
      "Ph": 2624,
      "Ġlabel": 2625,
      "Ġfloat": 2626,
      "leg": 2627,
      "lap": 2628,
      "Ġimport": 2629,
      "kg": 2630,
      "Ġoptions": 2631,
      "MM": 2632,
      "fs": 2633,
      "Pre": 2634,
      "impl": 2635,
      "Manager": 2636,
      "dl": 2637,
      "2021": 2638,
      "defined": 2639,
      "Vis": 2640,
      "Ġexist": 2641,
      "ĠFalse": 2642,
      "ĠName": 2643,
      "element": 2644,
      "ĠIs": 2645,
      "uint": 2646,
      "UL": 2647,
      "cent": 2648,
      ")))": 2649,
      "tect": 2650,
      "insert": 2651,
      "vir": 2652,
      "icker": 2653,
      "GE": 2654,
      "ĊĊĠĠĠĠĠĠĠĠĠĠĠĠĠĠĠ": 2655,
      "angle": 2656,
      "_.": 2657,
      "Mode": 2658,
      "ĠTABLE": 2659,
      "rs": 2660,
      "parse": 2661,
      "Ġstatus": 2662,
      "wait": 2663,
      "anguage": 2664,
      "unk": 2665,
      "wrapper": 2666,
      "ĠAn": 2667,
      "radient": 2668,
      "Ġfiles": 2669,
      "install": 2670,
      "ĠTO": 2671,
      ":.": 2672,
      "Update": 2673,
      "gn": 2674,
      "primary": 2675,
      "Ac": 2676,
      "################################": 2677,
      "ARY": 2678,
      "Ġlean": 2679,
      "71": 2680,
      "roller": 2681,
      "cache": 2682,
      "256": 2683,
      "Ġ32": 2684,
      "Ġdocument": 2685,
      "ffff": 2686,
      ")(": 2687,
      "arm": 2688,
      "Ġ13": 2689,
      "cell": 2690,
      "ient": 2691,
      "ished": 2692,
      "ote": 2693,
      "Ã³": 2694,
      "ĠInteger": 2695,
      "UD": 2696,
      "END": 2697,
      "Valid": 2698,
      "edit": 2699,
      "Ġ===": 2700,
      "images": 2701,
      "Ġass": 2702,
      "update": 2703,
      "herit": 2704,
      ")),": 2705,
      "stream": 2706,
      "Ġresponse": 2707,
      "dr": 2708,
      "root": 2709,
      "ĠAssert": 2710,
      "ĠObject": 2711,
      "iver": 2712,
      "81": 2713,
      "Ġpoint": 2714,
      "mode": 2715,
      "ĉĉĉ": 2716,
      "erge": 2717,
      "area": 2718,
      ">\\": 2719,
      "Ġneed": 2720,
      "math": 2721,
      "Ġdoes": 2722,
      "txt": 2723,
      "ination": 2724,
      "92": 2725,
      "ĠNothing": 2726,
      "change": 2727,
      "Hel": 2728,
      "buf": 2729,
      "Ġdb": 2730,
      "_{": 2731,
      "range": 2732,
      "Option": 2733,
      "ls": 2734,
      "uple": 2735,
      "dc": 2736,
      "Stream": 2737,
      "window": 2738,
      "WS": 2739,
      "ĠPar": 2740,
      "Ġabo": 2741,
      "resource": 2742,
      "product": 2743,
      "sole": 2744,
      "Ġdistrib": 2745,
      "Ġuint": 2746,
      "vider": 2747,
      "Ġselect": 2748,
      "Part": 2749,
      "hash": 2750,
      "Ġ<-": 2751,
      "entifier": 2752,
      "outline": 2753,
      "rect": 2754,
      "Ġeach": 2755,
      "moz": 2756,
      "Import": 2757,
      "sche": 2758,
      "uper": 2759,
      "QL": 2760,
      "91": 2761,
      "UE": 2762,
      "ear": 2763,
      "Ġorder": 2764,
      "ebp": 2765,
      "Ġnext": 2766,
      "Ġmem": 2767,
      "Ø§": 2768,
      "uk": 2769,
      "alloc": 2770,
      "proto": 2771,
      "ĠĠĠĠĠĠĠĠĠĠĠĠĠĠ": 2772,
      "Ġbody": 2773,
      "Handler": 2774,
      "stant": 2775,
      "Feature": 2776,
      "Ġalign": 2777,
      "Ġ(`": 2778,
      "utf": 2779,
      "ential": 2780,
      "params": 2781,
      "EL": 2782,
      "Det": 2783,
      "Ġ58": 2784,
      "61": 2785,
      "ends": 2786,
      "tract": 2787,
      "Ġ**": 2788,
      "ĠDO": 2789,
      "Vector": 2790,
      "stract": 2791,
      "ffect": 2792,
      "ategory": 2793,
      "vm": 2794,
      "Ġendif": 2795,
      "tip": 2796,
      "Ġ30": 2797,
      "Ġvalid": 2798,
      "chema": 2799,
      "Max": 2800,
      "google": 2801,
      "meta": 2802,
      "CD": 2803,
      "\\\":": 2804,
      "Ġnon": 2805,
      "Ġclient": 2806,
      "Types": 2807,
      "Ġrel": 2808,
      "PL": 2809,
      "Filter": 2810,
      "docs": 2811,
      "Ġupdate": 2812,
      "(){": 2813,
      "\"],": 2814,
      "only": 2815,
      "%}.": 2816,
      "ä»": 2817,
      "ĠCont": 2818,
      "pay": 2819,
      "ĠOption": 2820,
      "lack": 2821,
      "ook": 2822,
      "Ġexpected": 2823,
      "ĠTrue": 2824,
      "Header": 2825,
      "ĠList": 2826,
      "crypto": 2827,
      "AF": 2828,
      "dition": 2829,
      "%,": 2830,
      "Ġcor": 2831,
      "ĠBy": 2832,
      "find": 2833,
      "ould": 2834,
      "ROM": 2835,
      "Ext": 2836,
      "ialize": 2837,
      "Drawing": 2838,
      "Ð»": 2839,
      "ĠIt": 2840,
      "Ġrequired": 2841,
      "stamp": 2842,
      "Ġoption": 2843,
      "ilename": 2844,
      "ws": 2845,
      "cription": 2846,
      "now": 2847,
      "irection": 2848,
      "ĠIS": 2849,
      "fd": 2850,
      "fc": 2851,
      "Row": 2852,
      "Open": 2853,
      "*)": 2854,
      "nown": 2855,
      "API": 2856,
      "ACT": 2857,
      "Ġgroup": 2858,
      "opacity": 2859,
      "HT": 2860,
      "ors": 2861,
      "nost": 2862,
      "FT": 2863,
      "types": 2864,
      "global": 2865,
      "require": 2866,
      "oth": 2867,
      "Ġease": 2868,
      "latform": 2869,
      "ump": 2870,
      "elf": 2871,
      "project": 2872,
      "===": 2873,
      "][": 2874,
      "ency": 2875,
      "Do": 2876,
      "\\_\\+": 2877,
      "Null": 2878,
      "vector": 2879,
      "cale": 2880,
      "ared": 2881,
      "Ġsupport": 2882,
      "128": 2883,
      "EXT": 2884,
      "cket": 2885,
      "ĠCopy": 2886,
      "ilation": 2887,
      "ATA": 2888,
      "Ġcre": 2889,
      "sets": 2890,
      "semb": 2891,
      "feature": 2892,
      "Su": 2893,
      "rate": 2894,
      "Args": 2895,
      "warning": 2896,
      "present": 2897,
      "Com": 2898,
      "SH": 2899,
      "\\+\\_\\+": 2900,
      "empty": 2901,
      "Ġinformation": 2902,
      ";&": 2903,
      "response": 2904,
      "ced": 2905,
      "IB": 2906,
      "ah": 2907,
      "PT": 2908,
      "Target": 2909,
      "Settings": 2910,
      "exec": 2911,
      "STR": 2912,
      "Ġhttps": 2913,
      "Temp": 2914,
      "Us": 2915,
      "(--": 2916,
      "=\"../": 2917,
      "ECT": 2918,
      "modal": 2919,
      "uid": 2920,
      "ĠST": 2921,
      "Column": 2922,
      "]{": 2923,
      "Ġbox": 2924,
      "boot": 2925,
      "pha": 2926,
      "IR": 2927,
      "unter": 2928,
      "ĠSer": 2929,
      "Ġexp": 2930,
      "umb": 2931,
      "čĊĉĉ": 2932,
      "strap": 2933,
      "Params": 2934,
      "service": 2935,
      "Ġpage": 2936,
      "andom": 2937,
      "Length": 2938,
      "Page": 2939,
      "ped": 2940,
      "ĠCALL": 2941,
      "AV": 2942,
      "Ġlength": 2943,
      "%%%%%%%%%%%%%%%%": 2944,
      "Work": 2945,
      "olume": 2946,
      "}[": 2947,
      "ĠID": 2948,
      "čĊčĊ": 2949,
      "GU": 2950,
      "COMP": 2951,
      "Hash": 2952,
      "è¿": 2953,
      "ines": 2954,
      "esp": 2955,
      "Mod": 2956,
      "files": 2957,
      "čĊĠĠĠĠĠ": 2958,
      "BA": 2959,
      "attern": 2960,
      "resh": 2961,
      "Ġparameter": 2962,
      "MD": 2963,
      "<!--": 2964,
      "Ab": 2965,
      "PAR": 2966,
      "roid": 2967,
      "edx": 2968,
      "ATION": 2969,
      "Ġ{\\": 2970,
      "board": 2971,
      "Ġ>=": 2972,
      "footer": 2973,
      "Char": 2974,
      "Web": 2975,
      "ste": 2976,
      "book": 2977,
      "2016": 2978,
      "SD": 2979,
      "åĪ": 2980,
      "loy": 2981,
      "Ġrange": 2982,
      "ACK": 2983,
      "close": 2984,
      "java": 2985,
      "Ġitem": 2986,
      "TYPE": 2987,
      "ado": 2988,
      "unit": 2989,
      "Over": 2990,
      "Clo": 2991,
      "cx": 2992,
      "Ġ\",": 2993,
      "stack": 2994,
      "=\"+": 2995,
      "tual": 2996,
      "description": 2997,
      "PRE": 2998,
      "riter": 2999,
      "template": 3000,
      "]:": 3001,
      "ĊĠĠĠĠĊĠĠĠ": 3002,
      "'>": 3003,
      "PYGZ": 3004,
      "Ġ\"\"\"": 3005,
      "ches": 3006,
      "Unit": 3007,
      "Ġsome": 3008,
      "Ġap": 3009,
      "graph": 3010,
      "DEF": 3011,
      "white": 3012,
      "lip": 3013,
      "izer": 3014,
      "Ġqu": 3015,
      "lan": 3016,
      "ĠĊ": 3017,
      "IND": 3018,
      "Address": 3019,
      "ose": 3020,
      "Forms": 3021,
      "Project": 3022,
      "day": 3023,
      "imum": 3024,
      "____": 3025,
      "ique": 3026,
      "CMake": 3027,
      "gb": 3028,
      "Ġ56": 3029,
      "Float": 3030,
      "ither": 3031,
      "Ġ../": 3032,
      "Ġlast": 3033,
      "lit": 3034,
      "initial": 3035,
      "OUT": 3036,
      "tree": 3037,
      "xs": 3038,
      "Ġ200": 3039,
      "Ġprovide": 3040,
      "Ġexec": 3041,
      "scale": 3042,
      "bd": 3043,
      "ven": 3044,
      "rout": 3045,
      "cap": 3046,
      "Ġgiven": 3047,
      "ĠOn": 3048,
      "reference": 3049,
      "Ġ25": 3050,
      "True": 3051,
      "ios": 3052,
      "ĉĉĉĉĉĉĉĉ": 3053,
      "Local": 3054,
      "Ġabs": 3055,
      "Ġav": 3056,
      "lyph": 3057,
      "2019": 3058,
      "met": 3059,
      "Rem": 3060,
      "lasses": 3061,
      "application": 3062,
      "car": 3063,
      "Ġret": 3064,
      "Ġfollowing": 3065,
      "Ġcount": 3066,
      "Ver": 3067,
      "BL": 3068,
      "cir": 3069,
      "small": 3070,
      "any": 3071,
      "Location": 3072,
      "Ġ255": 3073,
      "Tool": 3074,
      "Ġspecified": 3075,
      "000000": 3076,
      "debug": 3077,
      "-.": 3078,
      "Ġtd": 3079,
      "ker": 3080,
      "very": 3081,
      "Ġ18": 3082,
      "imer": 3083,
      "åħ": 3084,
      "conf": 3085,
      "ious": 3086,
      "Ġ19": 3087,
      "[:": 3088,
      "This": 3089,
      "ĠWrite": 3090,
      "OB": 3091,
      "ĠKEY": 3092,
      "Ġfound": 3093,
      "Debug": 3094,
      "tegr": 3095,
      "Ġcur": 3096,
      "Ġsign": 3097,
      "Range": 3098,
      "Ġlen": 3099,
      "äº": 3100,
      "pol": 3101,
      "anch": 3102,
      "ĠEn": 3103,
      "ĠCreate": 3104,
      "ĠAPI": 3105,
      "wise": 3106,
      "SY": 3107,
      "just": 3108,
      "Ġcolumn": 3109,
      ")}.": 3110,
      "jav": 3111,
      "\"}": 3112,
      "iagnost": 3113,
      "Ġprocess": 3114,
      "document": 3115,
      "remove": 3116,
      "Ġtry": 3117,
      "čĊčĊĠĠĠ": 3118,
      "Ptr": 3119,
      "------------": 3120,
      "Ġoffset": 3121,
      "INST": 3122,
      "Ġproperty": 3123,
      "dp": 3124,
      "req": 3125,
      "gradient": 3126,
      "ìĿ": 3127,
      "ĠFile": 3128,
      "Run": 3129,
      "FIG": 3130,
      "deg": 3131,
      "otal": 3132,
      "Ġsystem": 3133,
      "WORD": 3134,
      "ĠON": 3135,
      "ipe": 3136,
      "Bar": 3137,
      "FILE": 3138,
      "{}}\\": 3139,
      "esi": 3140,
      "lice": 3141,
      "Pos": 3142,
      "Return": 3143,
      "oci": 3144,
      "dec": 3145,
      "DEP": 3146,
      "Ġ40": 3147,
      "Ġty": 3148,
      "ĠTHE": 3149,
      "ru": 3150,
      "tected": 3151,
      "Dir": 3152,
      "ARE": 3153,
      "copy": 3154,
      "./": 3155,
      "Ġ),": 3156,
      "IES": 3157,
      "progress": 3158,
      "#[": 3159,
      "common": 3160,
      "Ġinitial": 3161,
      "ITE": 3162,
      "Access": 3163,
      "ten": 3164,
      "Ġinterface": 3165,
      "ful": 3166,
      "ĠProperty": 3167,
      "Op": 3168,
      "Ġtag": 3169,
      "ĠAN": 3170,
      "Sto": 3171,
      "å®": 3172,
      "Ġ})": 3173,
      "None": 3174,
      "IZE": 3175,
      "*(": 3176,
      "inue": 3177,
      "tate": 3178,
      "Param": 3179,
      "Ġ\"%": 3180,
      "Ġind": 3181,
      "lar": 3182,
      "mail": 3183,
      "Back": 3184,
      "schema": 3185,
      "ĠCH": 3186,
      "scal": 3187,
      "used": 3188,
      "Ġlong": 3189,
      "acro": 3190,
      "Buffer": 3191,
      "////////////////": 3192,
      "match": 3193,
      "ĊĠĠĠĠĠĠĠĠĠĠĠĠĠĠĠĠĠĠĠĠĠ": 3194,
      "Ġreal": 3195,
      "interface": 3196,
      "anger": 3197,
      "ĠTHEN": 3198,
      "ĠSee": 3199,
      "fill": 3200,
      "expr": 3201,
      "asks": 3202,
      "picker": 3203,
      "DR": 3204,
      "ĠPre": 3205,
      "Ġff": 3206,
      "Ġaddress": 3207,
      "dw": 3208,
      "\"`": 3209,
      "{'": 3210,
      "aj": 3211,
      "Ġwhile": 3212,
      "tric": 3213,
      "Ġdefined": 3214,
      "gp": 3215,
      "Ġ...": 3216,
      "onment": 3217,
      "PR": 3218,
      "Child": 3219,
      "Ġproject": 3220,
      "xB": 3221,
      "Ġpush": 3222,
      "expected": 3223,
      "\\/": 3224,
      "ln": 3225,
      "xc": 3226,
      "allet": 3227,
      "EGER": 3228,
      "address": 3229,
      "unic": 3230,
      "bc": 3231,
      "member": 3232,
      "mk": 3233,
      "namespace": 3234,
      "Rule": 3235,
      "Ġinline": 3236,
      "ilt": 3237,
      "quence": 3238,
      "ĠRead": 3239,
      "Ġview": 3240,
      "ched": 3241,
      "Ġfind": 3242,
      "safe": 3243,
      "tabs": 3244,
      "\".": 3245,
      "Min": 3246,
      "Ġimage": 3247,
      "igin": 3248,
      "Ġreturns": 3249,
      "Ġfilter": 3250,
      "buffer": 3251,
      "Ġjust": 3252,
      "Common": 3253,
      "Document": 3254,
      "ARCH": 3255,
      "pull": 3256,
      "Ġsame": 3257,
      "ween": 3258,
      "MAX": 3259,
      "IME": 3260,
      "`)": 3261,
      "Ġallow": 3262,
      "Build": 3263,
      "Ht": 3264,
      "ling": 3265,
      "process": 3266,
      "Core": 3267,
      "Ġtransform": 3268,
      "=$": 3269,
      "ĠAND": 3270,
      "Ġopt": 3271,
      "Ġtransparent": 3272,
      "ĠDo": 3273,
      "Ġsp": 3274,
      "au": 3275,
      "Tab": 3276,
      "components": 3277,
      "Ġref": 3278,
      "Ġexample": 3279,
      "Reference": 3280,
      "rule": 3281,
      "Ġdim": 3282,
      "inary": 3283,
      "Ġdouble": 3284,
      "itive": 3285,
      "admin": 3286,
      "Err": 3287,
      "Script": 3288,
      "xe": 3289,
      "Ġserver": 3290,
      "xf": 3291,
      "Host": 3292,
      "umer": 3293,
      "luster": 3294,
      "Ġ\\\\": 3295,
      "ailable": 3296,
      "URL": 3297,
      "IE": 3298,
      "Width": 3299,
      "eta": 3300,
      "pers": 3301,
      "bx": 3302,
      ")\"": 3303,
      "PC": 3304,
      "asm": 3305,
      "system": 3306,
      "Ġbegin": 3307,
      "Ġthere": 3308,
      "ulti": 3309,
      "aption": 3310,
      "Collection": 3311,
      "\"\"\"": 3312,
      "ene": 3313,
      "=\"../../../../": 3314,
      "sheet": 3315,
      "pb": 3316,
      "),%": 3317,
      "Ġback": 3318,
      "hidden": 3319,
      "ĠCOL": 3320,
      "lear": 3321,
      "flags": 3322,
      "Ġ/>": 3323,
      "Ġthan": 3324,
      "Layout": 3325,
      "Ġvarchar": 3326,
      "uch": 3327,
      "ideo": 3328,
      "Empty": 3329,
      "ĠAl": 3330,
      "à¥į": 3331,
      "\")]": 3332,
      "Ġ'/": 3333,
      "ĠError": 3334,
      "ae": 3335,
      "gest": 3336,
      "Ġpass": 3337,
      "tn": 3338,
      "oxy": 3339,
      "Ġph": 3340,
      "ka": 3341,
      "ted": 3342,
      "ĠPrivate": 3343,
      "###": 3344,
      "Ent": 3345,
      "totype": 3346,
      "ĠDes": 3347,
      "Ġclo": 3348,
      "Ġvis": 3349,
      "etween": 3350,
      "full": 3351,
      "Microsoft": 3352,
      "inc": 3353,
      "PER": 3354,
      "peat": 3355,
      "ĠBase": 3356,
      "IGN": 3357,
      "zz": 3358,
      "Ġopen": 3359,
      "ORM": 3360,
      "oin": 3361,
      "handle": 3362,
      "LIC": 3363,
      "Ġ++": 3364,
      "vices": 3365,
      "Ġë": 3366,
      "ÃŃ": 3367,
      "Ġem": 3368,
      "ĠApp": 3369,
      "NOT": 3370,
      "Ġits": 3371,
      "erm": 3372,
      "comment": 3373,
      "++++": 3374,
      "iteral": 3375,
      "ĠCopyright": 3376,
      "off": 3377,
      "deta": 3378,
      "{$": 3379,
      "âĶ": 3380,
      "Ġrow": 3381,
      "bool": 3382,
      "ĠErr": 3383,
      "si": 3384,
      "glyph": 3385,
      "çĶ": 3386,
      "Ġ\\\"": 3387,
      "åĽ": 3388,
      "Ġ<=": 3389,
      "CREATE": 3390,
      "structor": 3391,
      "HER": 3392,
      "ĠPRO": 3393,
      "ibility": 3394,
      "oot": 3395,
      "Ġexpect": 3396,
      "Expr": 3397,
      "ely": 3398,
      "RUN": 3399,
      "ĊĠĠĠĠĠĠĠĠĠĠĠĠĠĠĠĠĠĠĠĠĠĠĠĠĠĠĠĠĠĠĠĠĠĠĠĠĠĠĠĠĠĠĠĠĠĠĠĠĠĠĠĠĠĠĠĠ": 3400,
      "texttt": 3401,
      "ĊĊĉĉ": 3402,
      "matrix": 3403,
      "\"},": 3404,
      "sq": 3405,
      "IST": 3406,
      "\">&": 3407,
      "ready": 3408,
      "ban": 3409,
      "DU": 3410,
      "Ð°Ð": 3411,
      "Ġul": 3412,
      "Ġlink": 3413,
      "Operation": 3414,
      "velo": 3415,
      "dep": 3416,
      "Ñĥ": 3417,
      "Ġthrow": 3418,
      "Any": 3419,
      "ĠBu": 3420,
      "hyper": 3421,
      "Ġ24": 3422,
      "Ġexit": 3423,
      "Ġ$\\": 3424,
      "ARGET": 3425,
      "sembly": 3426,
      "Left": 3427,
      "```": 3428,
      "SA": 3429,
      ")).": 3430,
      "996": 3431,
      "les": 3432,
      "Entry": 3433,
      "creen": 3434,
      "bind": 3435,
      "ron": 3436,
      "Ġ['": 3437,
      "widget": 3438,
      "PYGZhy": 3439,
      "ĠTra": 3440,
      "TEST": 3441,
      "Ġ',": 3442,
      "Ġtranslate": 3443,
      "Order": 3444,
      "Ġload": 3445,
      "CONFIG": 3446,
      "160": 3447,
      "CHE": 3448,
      "ision": 3449,
      "Ġshow": 3450,
      "FB": 3451,
      "++)": 3452,
      "AY": 3453,
      "]=\"": 3454,
      "pag": 3455,
      "ĠArray": 3456,
      "mission": 3457,
      "danger": 3458,
      "Ġafter": 3459,
      "dim": 3460,
      "bitcoin": 3461,
      "IX": 3462,
      "idx": 3463,
      "headers": 3464,
      "nop": 3465,
      "wn": 3466,
      "?:": 3467,
      "ART": 3468,
      "ĠGener": 3469,
      "Sec": 3470,
      "Process": 3471,
      "ĠINTEGER": 3472,
      "sys": 3473,
      "ĠSET": 3474,
      "bootstrap": 3475,
      "Normal": 3476,
      "example": 3477,
      "CMakeFiles": 3478,
      "break": 3479,
      "Exp": 3480,
      "ĠYou": 3481,
      "ĊĊĊ": 3482,
      "Position": 3483,
      "ACE": 3484,
      "ĠWe": 3485,
      "Ġnow": 3486,
      "sn": 3487,
      "ures": 3488,
      ")-": 3489,
      "mx": 3490,
      "Level": 3491,
      "Parameters": 3492,
      "FFFF": 3493,
      "ynam": 3494,
      "åĲ": 3495,
      "INCL": 3496,
      "Ġhe": 3497,
      "SR": 3498,
      "access": 3499,
      "je": 3500,
      "åº": 3501,
      "Menu": 3502,
      "400": 3503,
      "Ġlevel": 3504,
      "dest": 3505,
      "cmp": 3506,
      "Ġunsigned": 3507,
      "strong": 3508,
      "udio": 3509,
      "!!!!": 3510,
      "LECT": 3511,
      "Description": 3512,
      "LD": 3513,
      "Offset": 3514,
      "ces": 3515,
      "INSTALL": 3516,
      "unwrap": 3517,
      "delete": 3518,
      "VM": 3519,
      "nx": 3520,
      "lds": 3521,
      "ixel": 3522,
      "/_": 3523,
      "<'": 3524,
      "compile": 3525,
      "holder": 3526,
      "switch": 3527,
      "GL": 3528,
      "symbol": 3529,
      "Ġsk": 3530,
      "Ġsm": 3531,
      "BO": 3532,
      "Load": 3533,
      "ĠAR": 3534,
      "ivity": 3535,
      "Æ°": 3536,
      "Ġwrit": 3537,
      "inition": 3538,
      "desc": 3539,
      "`.": 3540,
      "Ġdiv": 3541,
      "pri": 3542,
      "property": 3543,
      "æĸ": 3544,
      "Ġnormal": 3545,
      "tw": 3546,
      "leted": 3547,
      "aded": 3548,
      "imal": 3549,
      "Configuration": 3550,
      "lude": 3551,
      ";}": 3552,
      "Py": 3553,
      "redential": 3554,
      "addr": 3555,
      "bed": 3556,
      "olute": 3557,
      ",:": 3558,
      "vertical": 3559,
      "El": 3560,
      "oriz": 3561,
      "Policy": 3562,
      "å¤": 3563,
      "Lj": 3564,
      "SU": 3565,
      "auth": 3566,
      "cv": 3567,
      "alt": 3568,
      "Ġ39": 3569,
      "Current": 3570,
      "sort": 3571,
      "ĠEN": 3572,
      "[[": 3573,
      "Ġalso": 3574,
      "Ġmode": 3575,
      "checkbox": 3576,
      "bat": 3577,
      "]);": 3578,
      "ĠUp": 3579,
      "(\\": 3580,
      "angular": 3581,
      "DC": 3582,
      "utor": 3583,
      "dated": 3584,
      "iddle": 3585,
      "iction": 3586,
      "ga": 3587,
      "iant": 3588,
      "mon": 3589,
      "alys": 3590,
      "zh": 3591,
      "rm": 3592,
      "Async": 3593,
      "ãĢĤ": 3594,
      "125": 3595,
      "ONY": 3596,
      "Ġsw": 3597,
      "values": 3598,
      "Match": 3599,
      "lied": 3600,
      "Ġest": 3601,
      "AND": 3602,
      "RT": 3603,
      "cu": 3604,
      "python": 3605,
      "alysis": 3606,
      "Ġcontain": 3607,
      "Ġimplement": 3608,
      "Ġdistributed": 3609,
      "Ġparameters": 3610,
      "Only": 3611,
      "101": 3612,
      "Msg": 3613,
      "\\\",": 3614,
      "Ġempty": 3615,
      "long": 3616,
      "ias": 3617,
      "ved": 3618,
      "ocker": 3619,
      "LS": 3620,
      "uction": 3621,
      "Ġwindow": 3622,
      "transparent": 3623,
      "printf": 3624,
      "2018": 3625,
      "finition": 3626,
      "kt": 3627,
      "stat": 3628,
      "ä½": 3629,
      "Parser": 3630,
      "PHONY": 3631,
      "Ġquery": 3632,
      "normal": 3633,
      "utom": 3634,
      "Az": 3635,
      "GO": 3636,
      "Ġbeen": 3637,
      "UI": 3638,
      "animation": 3639,
      "Ġpackage": 3640,
      "ITY": 3641,
      ":</": 3642,
      "Cache": 3643,
      "Global": 3644,
      "Ġservice": 3645,
      "~~~~~~~~": 3646,
      "Font": 3647,
      "equal": 3648,
      "irtual": 3649,
      "Def": 3650,
      "ERROR": 3651,
      "igger": 3652,
      "modules": 3653,
      "ĠMO": 3654,
      "Ġpointer": 3655,
      "join": 3656,
      "Ġrule": 3657,
      "ending": 3658,
      "ugh": 3659,
      "Url": 3660,
      "ĠOr": 3661,
      "slds": 3662,
      "valu": 3663,
      "Active": 3664,
      "Ġ___": 3665,
      "andard": 3666,
      "ĠCheck": 3667,
      "REG": 3668,
      "Ġbefore": 3669,
      "Ġlimit": 3670,
      "Ġ17": 3671,
      "Top": 3672,
      "![": 3673,
      "Ġpy": 3674,
      "bad": 3675,
      "Ġcalc": 3676,
      "Case": 3677,
      "AE": 3678,
      "Ġaccess": 3679,
      "Utils": 3680,
      "Exec": 3681,
      "ails": 3682,
      "mi": 3683,
      "Ġque": 3684,
      "ories": 3685,
      "Ġparse": 3686,
      "ĊĉĠĠĠ": 3687,
      "Ġjava": 3688,
      "Ġparams": 3689,
      "Container": 3690,
      "Matrix": 3691,
      "INFO": 3692,
      ">)": 3693,
      "na": 3694,
      "etch": 3695,
      "master": 3696,
      "ĠTo": 3697,
      "Ġrelative": 3698,
      "ĠIm": 3699,
      "Ġ<!--": 3700,
      "author": 3701,
      "Body": 3702,
      "Properties": 3703,
      "Json": 3704,
      "glyphicon": 3705,
      "NC": 3706,
      ".$": 3707,
      "Imports": 3708,
      "vec": 3709,
      "mount": 3710,
      "GT": 3711,
      "Ġroot": 3712,
      "=\\\"": 3713,
      "utils": 3714,
      "DS": 3715,
      "jpg": 3716,
      "_;": 3717,
      "git": 3718,
      "JSON": 3719,
      "Sign": 3720,
      "Ġreference": 3721,
      "Syntax": 3722,
      "vironment": 3723,
      "ĠVersion": 3724,
      "Store": 3725,
      "ĠCOLOR": 3726,
      "Num": 3727,
      "Right": 3728,
      "scroll": 3729,
      "Mz": 3730,
      "ultiple": 3731,
      "rep": 3732,
      "EC": 3733,
      "sdk": 3734,
      "Ġdate": 3735,
      "Ġdepend": 3736,
      ":\\": 3737,
      "tar": 3738,
      "Task": 3739,
      "WN": 3740,
      "});": 3741,
      "Ġcomponent": 3742,
      "Mo": 3743,
      "ascript": 3744,
      "Byte": 3745,
      "Copy": 3746,
      "Ġmain": 3747,
      "ĠANY": 3748,
      "prefix": 3749,
      "Cmd": 3750,
      "Next": 3751,
      "Ġ60": 3752,
      "Ġtoken": 3753,
      "Ġaction": 3754,
      "Account": 3755,
      "OPT": 3756,
      "Ġ80": 3757,
      "typeof": 3758,
      "clear": 3759,
      "Ġinfo": 3760,
      "fra": 3761,
      "ived": 3762,
      "Ġdirectory": 3763,
      "VS": 3764,
      "Tree": 3765,
      "ĠValue": 3766,
      "čĊčĊĠĠĠĠĠĠĠ": 3767,
      "Ġra": 3768,
      "Connection": 3769,
      ")?": 3770,
      "_,": 3771,
      "split": 3772,
      "ÙĦ": 3773,
      "Ġdif": 3774,
      "Ġcharacter": 3775,
      "ARRA": 3776,
      "plit": 3777,
      "translate": 3778,
      "NE": 3779,
      "come": 3780,
      "{{": 3781,
      "IONS": 3782,
      "čĊĠĠĠĠĠĠĠĠĠĠĠĠĠĠĠĠĠĠĠ": 3783,
      "URE": 3784,
      "Last": 3785,
      "AX": 3786,
      "æĺ": 3787,
      "Ġsoftware": 3788,
      "vious": 3789,
      "Bytes": 3790,
      "edge": 3791,
      "Ġvector": 3792,
      "Ġhere": 3793,
      "Ġbuffer": 3794,
      "medi": 3795,
      "Ap": 3796,
      "apping": 3797,
      "tocol": 3798,
      "private": 3799,
      "aybe": 3800,
      "Ġwithout": 3801,
      "Ġbit": 3802,
      ",[": 3803,
      "OC": 3804,
      "čĊĉĉĉ": 3805,
      "Ġspecific": 3806,
      "Handle": 3807,
      "Wh": 3808,
      "Down": 3809,
      "routine": 3810,
      "PECT": 3811,
      "}},": 3812,
      "Te": 3813,
      "Ġ45": 3814,
      "RL": 3815,
      "Ġsee": 3816,
      "iginal": 3817,
      "riend": 3818,
      "GR": 3819,
      "ii": 3820,
      "prototype": 3821,
      "Ġ(%": 3822,
      "coding": 3823,
      "Provider": 3824,
      "Ġver": 3825,
      "&&(": 3826,
      "izing": 3827,
      "Ġabsolute": 3828,
      "onth": 3829,
      "ging": 3830,
      "Ġtypes": 3831,
      "Member": 3832,
      "TARGET": 3833,
      "Ġoverride": 3834,
      "ĊĊĠĠ": 3835,
      "dist": 3836,
      "Ġspan": 3837,
      "apter": 3838,
      "Ġstore": 3839,
      "Ġpos": 3840,
      "ĠLog": 3841,
      "orizont": 3842,
      "ze": 3843,
      "hell": 3844,
      "messages": 3845,
      "Ġ22": 3846,
      "aster": 3847,
      "Ġ([": 3848,
      "mask": 3849,
      "Sk": 3850,
      "signature": 3851,
      "invalid": 3852,
      "Fa": 3853,
      "orld": 3854,
      "Ġes": 3855,
      "Ġwant": 3856,
      ">:": 3857,
      "circle": 3858,
      "Ġeither": 3859,
      "plugin": 3860,
      "1234": 3861,
      "ways": 3862,
      "found": 3863,
      "Sp": 3864,
      "Variable": 3865,
      "tags": 3866,
      "sec": 3867,
      "builder": 3868,
      "device": 3869,
      "account": 3870,
      "sing": 3871,
      "Parent": 3872,
      "np": 3873,
      "etc": 3874,
      "ĠText": 3875,
      "sql": 3876,
      "Compiler": 3877,
      "gu": 3878,
      "():": 3879,
      "allow": 3880,
      "Ġab": 3881,
      "ĠReg": 3882,
      "Ġport": 3883,
      "Ġopacity": 3884,
      "foo": 3885,
      "Ġsc": 3886,
      "region": 3887,
      "!(\"": 3888,
      "()->": 3889,
      "False": 3890,
      "orizontal": 3891,
      "Doxy": 3892,
      "Ġjs": 3893,
      "wp": 3894,
      "Po": 3895,
      "ĠPR": 3896,
      "posit": 3897,
      "anel": 3898,
      "Ġheader": 3899,
      "Struct": 3900,
      "Height": 3901,
      "task": 3902,
      "ony": 3903,
      "arr": 3904,
      "EE": 3905,
      "Flags": 3906,
      "tooltip": 3907,
      "Ġintent": 3908,
      "ists": 3909,
      "fi": 3910,
      "Port": 3911,
      "clone": 3912,
      "reen": 3913,
      "RR": 3914,
      "bers": 3915,
      "xa": 3916,
      "ross": 3917,
      "scribe": 3918,
      "thread": 3919,
      "collap": 3920,
      "Pass": 3921,
      "rough": 3922,
      "bound": 3923,
      "ASS": 3924,
      "era": 3925,
      "ĠPy": 3926,
      "Show": 3927,
      "stop": 3928,
      "Ġsecond": 3929,
      "figure": 3930,
      "),(": 3931,
      ":{": 3932,
      "ĠOut": 3933,
      "TTP": 3934,
      "Ñı": 3935,
      "Ġtwo": 3936,
      "Record": 3937,
      "Ġ90": 3938,
      "Ġsum": 3939,
      "Ġfill": 3940,
      "cfg": 3941,
      "Expression": 3942,
      "Cla": 3943,
      "ura": 3944,
      "cer": 3945,
      "rel": 3946,
      "Make": 3947,
      "ason": 3948,
      "-}": 3949,
      "relative": 3950,
      "see": 3951,
      "Ġglobal": 3952,
      "send": 3953,
      "itional": 3954,
      "pa": 3955,
      "ynamic": 3956,
      "Ġparent": 3957,
      "quote": 3958,
      "Ġ21": 3959,
      "ĠĊĠĠĠ": 3960,
      "linear": 3961,
      "Ġmet": 3962,
      "ENV": 3963,
      "(___": 3964,
      "nh": 3965,
      "pointer": 3966,
      "Factory": 3967,
      "cloud": 3968,
      "Ġabout": 3969,
      "textbf": 3970,
      "overflow": 3971,
      "Ġreq": 3972,
      "Names": 3973,
      "Send": 3974,
      "Ġextends": 3975,
      "300": 3976,
      "ĊĉĠ": 3977,
      "javascript": 3978,
      "internal": 3979,
      "Ġcities": 3980,
      "Ġcd": 3981,
      "site": 3982,
      "rf": 3983,
      "Lib": 3984,
      "xt": 3985,
      "Ġhash": 3986,
      "Delete": 3987,
      "Definition": 3988,
      "ĠBoolean": 3989,
      "Ġder": 3990,
      "prec": 3991,
      "cause": 3992,
      "Events": 3993,
      "ops": 3994,
      "Ġlanguage": 3995,
      ",('": 3996,
      "ĠAp": 3997,
      "Api": 3998,
      "9999996": 3999,
      "Ġresults": 4000,
      "ensions": 4001,
      "Ġip": 4002,
      "ighlight": 4003,
      "è¯": 4004,
      "Custom": 4005,
      "Interface": 4006,
      "Graph": 4007,
      "Ġ\"-": 4008,
      "æĪ": 4009,
      "rgba": 4010,
      "Ðº": 4011,
      "Ty": 4012,
      "dot": 4013,
      "æķ": 4014,
      "120": 4015,
      "erial": 4016,
      "Ġ(\\": 4017,
      "Ġjson": 4018,
      "gl": 4019,
      "Entity": 4020,
      "Ġbutton": 4021,
      "ĠWith": 4022,
      "Session": 4023,
      "Mj": 4024,
      "resses": 4025,
      "ĊĠĠĠĠĠĠĠĠĠĠĠĠĠĠĠĠĠĠ": 4026,
      "ffic": 4027,
      "bytes": 4028,
      "xff": 4029,
      "ĠSelf": 4030,
      "icons": 4031,
      "Abstract": 4032,
      "shot": 4033,
      "Ġmat": 4034,
      "gz": 4035,
      "Ġinternal": 4036,
      "Ġ>>": 4037,
      "missions": 4038,
      "ĀĀĀĀĀĀĀĀ": 4039,
      "Bind": 4040,
      "ky": 4041,
      "double": 4042,
      "DW": 4043,
      "bi": 4044,
      "UTO": 4045,
      "Ġavailable": 4046,
      "payload": 4047,
      "BB": 4048,
      "patch": 4049,
      "246": 4050,
      "black": 4051,
      "vs": 4052,
      "STAT": 4053,
      "OBJ": 4054,
      "igation": 4055,
      "Ġscale": 4056,
      "ram": 4057,
      "step": 4058,
      "decor": 4059,
      "360": 4060,
      "nn": 4061,
      "edi": 4062,
      "actions": 4063,
      "ous": 4064,
      ":[": 4065,
      "Ùİ": 4066,
      "Root": 4067,
      "Ġscript": 4068,
      "abs": 4069,
      "Ġentry": 4070,
      "letion": 4071,
      "dat": 4072,
      "OK": 4073,
      "struction": 4074,
      "BIN": 4075,
      "then": 4076,
      "Ġiter": 4077,
      "Ġfmt": 4078,
      "SIZE": 4079,
      "åį": 4080,
      "Ġframe": 4081,
      "eg": 4082,
      "ung": 4083,
      "tile": 4084,
      "Ġrepresent": 4085,
      "Ġfields": 4086,
      "EM": 4087,
      "skip": 4088,
      "ros": 4089,
      "fb": 4090,
      "Ġdeta": 4091,
      "Ġ^": 4092,
      "keys": 4093,
      "ousel": 4094,
      "inst": 4095,
      "Ġ{\"": 4096,
      "blue": 4097,
      "ĠĠĠĠĠĠĠĠĠĠĠĠĠĠĠĠĠĠĠĠĠĠĠĠĠĠĠĠĠĠĠĠĠĠĠĠĠĠĠĠĠĠĠĠĠĠĠĠ": 4098,
      "Mon": 4099,
      "Can": 4100,
      "wd": 4101,
      "ĠDis": 4102,
      "Device": 4103,
      "non": 4104,
      "issing": 4105,
      ":=": 4106,
      "perand": 4107,
      "ĠDefault": 4108,
      "uture": 4109,
      "Ġfore": 4110,
      "ebx": 4111,
      "SL": 4112,
      "Sc": 4113,
      "license": 4114,
      "Ġcustom": 4115,
      "Ġcache": 4116,
      "xC": 4117,
      "connect": 4118,
      "Ġ[[": 4119,
      "Fields": 4120,
      "Ġboolean": 4121,
      "Ġag": 4122,
      "ILE": 4123,
      "ĠStr": 4124,
      "Ġâ": 4125,
      "Search": 4126,
      ")\\": 4127,
      "Has": 4128,
      "........": 4129,
      "lots": 4130,
      "Iter": 4131,
      "WR": 4132,
      "Ãł": 4133,
      "Require": 4134,
      "ignore": 4135,
      "ĠFROM": 4136,
      "direction": 4137,
      "finished": 4138,
      "Cal": 4139,
      "Ġbottom": 4140,
      "Constant": 4141,
      "Listener": 4142,
      "$$": 4143,
      "Ġhandle": 4144,
      "olve": 4145,
      "Ġ35": 4146,
      "ĠAnd": 4147,
      "ĠReturns": 4148,
      "ferent": 4149,
      "external": 4150,
      "ĠWIT": 4151,
      "Ġ_,": 4152,
      "tests": 4153,
      "ĠCHAR": 4154,
      "subsection": 4155,
      "ade": 4156,
      "Ġ75": 4157,
      "ĠSo": 4158,
      "Ġspace": 4159,
      "åĬ": 4160,
      "Meta": 4161,
      "ENSE": 4162,
      "Ġeq": 4163,
      "Ġcmd": 4164,
      "rowser": 4165,
      "ea": 4166,
      "Integer": 4167,
      "Ġfeature": 4168,
      "pkg": 4169,
      "merge": 4170,
      "DF": 4171,
      "gment": 4172,
      "Ġshift": 4173,
      "First": 4174,
      "Ġprovince": 4175,
      "EPS": 4176,
      "Ġfail": 4177,
      "Lean": 4178,
      "vc": 4179,
      "Ġoperation": 4180,
      "bounc": 4181,
      "Ġcomm": 4182,
      "ev": 4183,
      "slider": 4184,
      "Go": 4185,
      "Ñĭ": 4186,
      "Ġter": 4187,
      "castle": 4188,
      "Ġzero": 4189,
      "libbitcoin": 4190,
      "Ġbyte": 4191,
      "Ġbytes": 4192,
      "GET": 4193,
      "Net": 4194,
      "Ġtests": 4195,
      "gh": 4196,
      "aly": 4197,
      "ĠJSON": 4198,
      "alpha": 4199,
      "Ġpost": 4200,
      "]],": 4201,
      "ĠEvent": 4202,
      "Cur": 4203,
      "roy": 4204,
      "ĠMy": 4205,
      "åľ": 4206,
      "LOG": 4207,
      "?$": 4208,
      "Ġcondition": 4209,
      "acing": 4210,
      "voke": 4211,
      "Ġ78": 4212,
      "0000000000000000000000000000000000000000000000000000000000000000": 4213,
      "pear": 4214,
      "seq": 4215,
      "pository": 4216,
      "PORT": 4217,
      "ycastle": 4218,
      "aries": 4219,
      "CI": 4220,
      "PUT": 4221,
      "aven": 4222,
      "ĠVal": 4223,
      "bouncycastle": 4224,
      "report": 4225,
      "åĮ": 4226,
      "<<": 4227,
      "ĠDate": 4228,
      "DER": 4229,
      "Ġbecause": 4230,
      "Ġdel": 4231,
      "Sw": 4232,
      "180": 4233,
      "inherit": 4234,
      "gex": 4235,
      "Storage": 4236,
      "ĠAll": 4237,
      "ĠWh": 4238,
      "Enabled": 4239,
      "iki": 4240,
      ";;;;": 4241,
      "čĊĠĠĠĠ": 4242,
      "real": 4243,
      "radio": 4244,
      "Metadata": 4245,
      "Ċĉĉĉĉĉĉĉĉĉĉ": 4246,
      "ability": 4247,
      "@{": 4248,
      "del": 4249,
      "Wrap": 4250,
      "ĠIL": 4251,
      "Ġvert": 4252,
      "ertific": 4253,
      "carousel": 4254,
      ".,": 4255,
      "Schema": 4256,
      "Ġ(*": 4257,
      "SOUR": 4258,
      "alert": 4259,
      "react": 4260,
      "dict": 4261,
      "Ġcontrol": 4262,
      "ĠMet": 4263,
      "****************************************************************": 4264,
      "ARRANT": 4265,
      "=\"_": 4266,
      "ltr": 4267,
      "ĠImp": 4268,
      ".\\": 4269,
      "term": 4270,
      "Que": 4271,
      "Ð¼": 4272,
      "release": 4273,
      "ĠWARRANT": 4274,
      "Package": 4275,
      "should": 4276,
      "ĠOk": 4277,
      "ancel": 4278,
      "va": 4279,
      "replace": 4280,
      "ĠModule": 4281,
      "Sim": 4282,
      "ude": 4283,
      "ĠEXPECT": 4284,
      "ĠCOM": 4285,
      "ç»": 4286,
      "Namespace": 4287,
      "Ġreturned": 4288,
      "Ġ''": 4289,
      "Ġdelete": 4290,
      "Dim": 4291,
      "ites": 4292,
      "Ġcrate": 4293,
      "Ġte": 4294,
      "caption": 4295,
      "render": 4296,
      "iod": 4297,
      "istory": 4298,
      "ĊĠĠĠĠĠĠĠĠĠĠĠĠĠĠĠĠĠĠĠĠĠĠĠĠĠĠĠĠĠĠĠĠĠĠĠĠĠĠĠĠĠĠĠĠĠĠĠĠĠĠĠĠĠĠĠĠĠĠĠĠĠĠĠĠĠĠĠĠĠĠĠĠĠĠĠĠĠĠĠĠĠĠĠĠĠĠĠĠ": 4299,
      "Ġthey": 4300,
      "Ġ#-}": 4301,
      "ĊĠĠĠĠĠĠĠĠĊĠĠĠĠĠĠĠ": 4302,
      "inate": 4303,
      "total": 4304,
      "UU": 4305,
      "ĠØ": 4306,
      "repeat": 4307,
      "uler": 4308,
      "Ġos": 4309,
      "Controller": 4310,
      "lea": 4311,
      "110": 4312,
      "edia": 4313,
      "ĠLO": 4314,
      "Ġloc": 4315,
      "=$(": 4316,
      "Ġ64": 4317,
      "Ġent": 4318,
      "Ġmatrix": 4319,
      "fmt": 4320,
      "xd": 4321,
      "Ġstack": 4322,
      "Head": 4323,
      "Opt": 4324,
      "ni": 4325,
      "shape": 4326,
      "ja": 4327,
      "orith": 4328,
      "Use": 4329,
      "into": 4330,
      "Nav": 4331,
      "ulate": 4332,
      "Sum": 4333,
      "istry": 4334,
      "respon": 4335,
      "Ġstream": 4336,
      "Runtime": 4337,
      "hether": 4338,
      "Ġhidden": 4339,
      "OF": 4340,
      "Icon": 4341,
      "dialog": 4342,
      "atal": 4343,
      "sym": 4344,
      "Ġconfiguration": 4345,
      "utable": 4346,
      "249": 4347,
      "Ġbetween": 4348,
      "Ġattribute": 4349,
      "ĊĊĊĊ": 4350,
      "sass": 4351,
      "Ġthem": 4352,
      "Ġalloc": 4353,
      "where": 4354,
      "BUG": 4355,
      "Public": 4356,
      "support": 4357,
      "IV": 4358,
      "itest": 4359,
      "Ġprob": 4360,
      "%\\": 4361,
      "Display": 4362,
      "HERE": 4363,
      "Ġsingle": 4364,
      "DA": 4365,
      "Ġok": 4366,
      "email": 4367,
      "Application": 4368,
      "zon": 4369,
      "Basic": 4370,
      "decoration": 4371,
      "Channel": 4372,
      "Ġfunc": 4373,
      "Template": 4374,
      "airs": 4375,
      "olog": 4376,
      "lower": 4377,
      "Ass": 4378,
      "Ste": 4379,
      "770": 4380,
      "Ġaccount": 4381,
      "vb": 4382,
      "Ġfin": 4383,
      "500": 4384,
      "acy": 4385,
      "constant": 4386,
      "Ġsuccess": 4387,
      "Rout": 4388,
      "umi": 4389,
      "Stat": 4390,
      "arsh": 4391,
      "=(": 4392,
      "ral": 4393,
      "cxx": 4394,
      "uc": 4395,
      "åŃ": 4396,
      "Ġchild": 4397,
      "free": 4398,
      "Http": 4399,
      "sched": 4400,
      "hl": 4401,
      ")>": 4402,
      "Ġlike": 4403,
      "secondary": 4404,
      "Ġdon": 4405,
      "clean": 4406,
      "tach": 4407,
      "').": 4408,
      "TUR": 4409,
      "expand": 4410,
      ".\",": 4411,
      "ROOT": 4412,
      "generated": 4413,
      "'],": 4414,
      "absol": 4415,
      "SC": 4416,
      "ONE": 4417,
      "Ġprovided": 4418,
      "ĠLe": 4419,
      "ĊĠĠĠĠĠĠĠĠĠĠĠĠĠĠĠĠĠĠĠĠĠĠĠĠĠĠĠĠĠĠĠĠĠĠĠĠĠĠĠĠĠĠĠ": 4420,
      "ĊĠĠĠĠĠĠĠĠĠĠĠĠĠĠĠĠĠĠĠĠĠĠĠĠĠ": 4421,
      "keyword": 4422,
      "notation": 4423,
      "category": 4424,
      "Parse": 4425,
      "Ġrece": 4426,
      "uri": 4427,
      "Enum": 4428,
      "MB": 4429,
      "zw": 4430,
      "absolute": 4431,
      "raft": 4432,
      "ulation": 4433,
      ",#": 4434,
      "als": 4435,
      "Auto": 4436,
      "Assert": 4437,
      "goog": 4438,
      "ĠResult": 4439,
      "Ġxml": 4440,
      "Ġdoc": 4441,
      "apshot": 4442,
      "ĠFOR": 4443,
      "Æ°á»": 4444,
      "assets": 4445,
      "Click": 4446,
      "okup": 4447,
      "collapse": 4448,
      "Ġalt": 4449,
      "Ġscreen": 4450,
      "Ġvariables": 4451,
      "We": 4452,
      ".\\+": 4453,
      "}(": 4454,
      "Ġmp": 4455,
      "/\"": 4456,
      "WORK": 4457,
      "ua": 4458,
      "zero": 4459,
      "],\"": 4460,
      "unfinished": 4461,
      "Ġremove": 4462,
      "xD": 4463,
      "Ġpe": 4464,
      "Ġargument": 4465,
      "Ġ$_": 4466,
      "NI": 4467,
      "ĠNo": 4468,
      "sig": 4469,
      "]=": 4470,
      "ĠOver": 4471,
      "ĠUse": 4472,
      "coder": 4473,
      "Ġsubroutine": 4474,
      "License": 4475,
      "Callback": 4476,
      "issues": 4477,
      "click": 4478,
      "Values": 4479,
      "FR": 4480,
      "gy": 4481,
      "áĢ": 4482,
      "æĹ": 4483,
      "Init": 4484,
      "EPSG": 4485,
      "dk": 4486,
      ")--": 4487,
      "Network": 4488,
      "thing": 4489,
      "Diagnost": 4490,
      "Title": 4491,
      "variable": 4492,
      "(!": 4493,
      "Bound": 4494,
      "ents": 4495,
      "================================================================": 4496,
      "Ġarguments": 4497,
      "achine": 4498,
      "PP": 4499,
      "Grid": 4500,
      "hav": 4501,
      "Ġca": 4502,
      "tools": 4503,
      "ffix": 4504,
      "Ġrotate": 4505,
      "FE": 4506,
      "Ġimg": 4507,
      "'}": 4508,
      "material": 4509,
      "Ġ01": 4510,
      "ĠÄ": 4511,
      "ping": 4512,
      "Ġalready": 4513,
      "ĠForm": 4514,
      "Av": 4515,
      "SELECT": 4516,
      "Ġax": 4517,
      "('\\": 4518,
      "\"));": 4519,
      "cursor": 4520,
      "encies": 4521,
      "Cell": 4522,
      "Ġsection": 4523,
      "Ġps": 4524,
      "Initial": 4525,
      "Ùħ": 4526,
      "Ġtransition": 4527,
      "fl": 4528,
      "password": 4529,
      "Ġthese": 4530,
      "{-#": 4531,
      "ĠĠĠĠĠĠĠĠĠĠĠĠĠĠĠĠĠĠ": 4532,
      "Ġmovd": 4533,
      "checked": 4534,
      "Aw": 4535,
      "equ": 4536,
      "eed": 4537,
      "Ċĉĉĉĉĉĉĉĉ": 4538,
      "Ġdirect": 4539,
      "Ġmsg": 4540,
      "apture": 4541,
      "ĠPrelude": 4542,
      "irm": 4543,
      "fixed": 4544,
      "ords": 4545,
      "win": 4546,
      "ators": 4547,
      "Ġour": 4548,
      ")--(": 4549,
      "Auth": 4550,
      "filename": 4551,
      "flag": 4552,
      "Main": 4553,
      "points": 4554,
      "ARN": 4555,
      "è¡": 4556,
      "ĊĉĊ": 4557,
      "known": 4558,
      "GC": 4559,
      "single": 4560,
      "zip": 4561,
      "MIN": 4562,
      "Vec": 4563,
      "Visual": 4564,
      "ĊĠĠĊĠ": 4565,
      "2017": 4566,
      "\\\":\\\"": 4567,
      "@@@": 4568,
      ".<": 4569,
      "strict": 4570,
      "ssl": 4571,
      "Ġke": 4572,
      "Ġclean": 4573,
      "bal": 4574,
      "Ġexcept": 4575,
      "Are": 4576,
      "endar": 4577,
      "ĠRem": 4578,
      "Invalid": 4579,
      "ount": 4580,
      "NU": 4581,
      "Ġlicense": 4582,
      "Ġcontinue": 4583,
      "Ġscal": 4584,
      "agement": 4585,
      "AMETER": 4586,
      "ended": 4587,
      "ives": 4588,
      "Tuple": 4589,
      "ĠGo": 4590,
      "Ġhost": 4591,
      "Non": 4592,
      "Argument": 4593,
      "MC": 4594,
      "lide": 4595,
      "prox": 4596,
      "Ġold": 4597,
      "ĠIO": 4598,
      "Ġacc": 4599,
      "DATE": 4600,
      "btain": 4601,
      "Ġcons": 4602,
      "FIX": 4603,
      "bits": 4604,
      "commit": 4605,
      "Util": 4606,
      "ĠHe": 4607,
      "Ġlinear": 4608,
      "register": 4609,
      "Ġlocation": 4610,
      "lone": 4611,
      "217": 4612,
      "engine": 4613,
      "ather": 4614,
      "lev": 4615,
      "unsigned": 4616,
      "returns": 4617,
      "Reader": 4618,
      "ONG": 4619,
      "TURN": 4620,
      "Ġdec": 4621,
      "}\")": 4622,
      "ica": 4623,
      "gray": 4624,
      "GP": 4625,
      "FS": 4626,
      "Changed": 4627,
      "SQL": 4628,
      "Ġsuper": 4629,
      "Internal": 4630,
      "Single": 4631,
      "Ġdist": 4632,
      "å¸": 4633,
      "VAL": 4634,
      "Ã¢": 4635,
      "oly": 4636,
      "Ġcatch": 4637,
      "FD": 4638,
      "ube": 4639,
      "ANT": 4640,
      "lash": 4641,
      "batch": 4642,
      "Ġinit": 4643,
      "à¦": 4644,
      "settings": 4645,
      "Ġconnection": 4646,
      "events": 4647,
      "HR": 4648,
      "Br": 4649,
      "999": 4650,
      "perations": 4651,
      "lines": 4652,
      "COL": 4653,
      "ĠUpdate": 4654,
      "Thread": 4655,
      "alle": 4656,
      "Ġsearch": 4657,
      "ulumi": 4658,
      "mbox": 4659,
      "amera": 4660,
      "ĠĠĠĠĠĠĠĠĠĠĠĠĠĠĠĠĠ": 4661,
      "ĊĊĠĠĠĠĠĠĠĠĠĠĠĠĠĠĠĠĠĠĠ": 4662,
      "çĶ¨": 4663,
      "Ġdown": 4664,
      "]$": 4665,
      "ocial": 4666,
      "ĠEL": 4667,
      "Ġfailed": 4668,
      "diff": 4669,
      "exit": 4670,
      "badge": 4671,
      "Domain": 4672,
      "ĠÎ": 4673,
      "}$": 4674,
      "Ġcreated": 4675,
      "ior": 4676,
      "heading": 4677,
      "\\-": 4678,
      "Ġdimension": 4679,
      "models": 4680,
      "cover": 4681,
      "ĠApache": 4682,
      "hi": 4683,
      "ĠInitial": 4684,
      "Ġrecord": 4685,
      "Ġbound": 4686,
      "rtl": 4687,
      "mr": 4688,
      "Ġdescription": 4689,
      "yy": 4690,
      "Obj": 4691,
      "Ġcalled": 4692,
      ".*": 4693,
      "Ġnamespace": 4694,
      "entic": 4695,
      "Ġ23": 4696,
      "peed": 4697,
      "runtime": 4698,
      "âĶĢ": 4699,
      "fix": 4700,
      "Rel": 4701,
      "Ġmark": 4702,
      "Report": 4703,
      "cg": 4704,
      "bose": 4705,
      "ĠEl": 4706,
      "^(": 4707,
      "2000": 4708,
      "maven": 4709,
      "Ġboth": 4710,
      "CODE": 4711,
      "Rep": 4712,
      "editor": 4713,
      "Ġasync": 4714,
      "fp": 4715,
      "channel": 4716,
      "Ġsuch": 4717,
      "Failed": 4718,
      "Ge": 4719,
      "Ġgenerated": 4720,
      "ĠKey": 4721,
      "Ġ'\\": 4722,
      "ssible": 4723,
      "fg": 4724,
      "Ax": 4725,
      "ÑĮ": 4726,
      "UNT": 4727,
      "results": 4728,
      "Ġ./": 4729,
      "ipeline": 4730,
      "mip": 4731,
      "crate": 4732,
      "Ġoverflow": 4733,
      "203": 4734,
      "AQ": 4735,
      "Results": 4736,
      "ĠNote": 4737,
      "vi": 4738,
      "stead": 4739,
      "vid": 4740,
      "Cre": 4741,
      "pose": 4742,
      "Ġtool": 4743,
      "ĠNO": 4744,
      "Ġ37": 4745,
      "Ġutf": 4746,
      "iny": 4747,
      "counter": 4748,
      "att": 4749,
      "Controls": 4750,
      "ĠÐ¿": 4751,
      "Ġelements": 4752,
      "alled": 4753,
      "network": 4754,
      "Ġobtain": 4755,
      "DEFAULT": 4756,
      "Ġctx": 4757,
      "}_": 4758,
      "Ġflag": 4759,
      "Ġelseif": 4760,
      "ĠREAL": 4761,
      "Ġ];": 4762,
      "rd": 4763,
      "âĸ": 4764,
      "exe": 4765,
      "(|": 4766,
      "Render": 4767,
      "Ġnames": 4768,
      "toolbar": 4769,
      "ocket": 4770,
      "nil": 4771,
      "Ġren": 4772,
      "ĠAt": 4773,
      "VB": 4774,
      "Ġcontains": 4775,
      "ĠTask": 4776,
      "1000": 4777,
      "save": 4778,
      "Ġ\"\",": 4779,
      "Ġtmp": 4780,
      "æľ¬": 4781,
      "AAAAAAAAAAAAAAAA": 4782,
      "nar": 4783,
      ")(%": 4784,
      "ecx": 4785,
      "targ": 4786,
      "GB": 4787,
      "Ð´": 4788,
      "ICE": 4789,
      "/*!": 4790,
      "Serial": 4791,
      "xb": 4792,
      "ĠTime": 4793,
      "Ġdifferent": 4794,
      "(__": 4795,
      "storage": 4796,
      "queue": 4797,
      "ĠTR": 4798,
      "upload": 4799,
      "Ġdest": 4800,
      "CTION": 4801,
      "amples": 4802,
      "Ġld": 4803,
      "Ġoperator": 4804,
      "scala": 4805,
      "Ð²": 4806,
      "YPE": 4807,
      "apped": 4808,
      "Ġoff": 4809,
      "visible": 4810,
      "Ġcell": 4811,
      "8615": 4812,
      "è®": 4813,
      "urity": 4814,
      "ĠAUTO": 4815,
      "Dr": 4816,
      "Ġsim": 4817,
      "Ġattr": 4818,
      "Ġtsd": 4819,
      "endor": 4820,
      "Red": 4821,
      "ness": 4822,
      "fields": 4823,
      "LINE": 4824,
      "attribute": 4825,
      "Ġfact": 4826,
      "ĊĠĠĠĠĠĠĠĠĠĠĠĠĠĠĠĠĠĠĠĠĠĠ": 4827,
      "Panel": 4828,
      "BC": 4829,
      "onsive": 4830,
      "ĠOpen": 4831,
      "lim": 4832,
      "cn": 4833,
      "ring": 4834,
      "Ġgoto": 4835,
      "article": 4836,
      "Ġ08": 4837,
      "Ġnetwork": 4838,
      "ha": 4839,
      "Items": 4840,
      "FC": 4841,
      "Ġqual": 4842,
      "scope": 4843,
      "Ġcursor": 4844,
      "Ġpop": 4845,
      "note": 4846,
      "LOC": 4847,
      "Override": 4848,
      "Print": 4849,
      "Ġge": 4850,
      "Func": 4851,
      "ĠCode": 4852,
      "native": 4853,
      "erson": 4854,
      "trics": 4855,
      "Ġplace": 4856,
      "Ġfi": 4857,
      "ĠFriend": 4858,
      "[$": 4859,
      "ks": 4860,
      "Ġsizeof": 4861,
      "Ġmemory": 4862,
      "wiki": 4863,
      "TD": 4864,
      "olution": 4865,
      "olver": 4866,
      "selected": 4867,
      "Ġdevice": 4868,
      "Ġotherwise": 4869,
      "ä¸Ģ": 4870,
      "integer": 4871,
      "Ġfree": 4872,
      "Ġmk": 4873,
      "ĠLo": 4874,
      "Ġdone": 4875,
      "Gui": 4876,
      "ane": 4877,
      "uring": 4878,
      "')},": 4879,
      "Fin": 4880,
      "IGHT": 4881,
      "ĠSO": 4882,
      "Ġabove": 4883,
      "Ġinsert": 4884,
      "job": 4885,
      "origin": 4886,
      "ĠArg": 4887,
      "NormalTok": 4888,
      "Ġsymbol": 4889,
      "Ġfull": 4890,
      "ries": 4891,
      "Ġtask": 4892,
      "criptor": 4893,
      "Ġ76": 4894,
      "ICAg": 4895,
      ")},": 4896,
      "::-": 4897,
      "ADD": 4898,
      "enum": 4899,
      "ĠGlobal": 4900,
      "Ġapplication": 4901,
      "frac": 4902,
      "docker": 4903,
      "AK": 4904,
      "Stack": 4905,
      "Lock": 4906,
      "2015": 4907,
      "stats": 4908,
      "Env": 4909,
      "direct": 4910,
      "Ġ$$": 4911,
      "Ġimplicit": 4912,
      "ĊĉĉĉĉĉĉĉĊĉĉĉĉĉĉ": 4913,
      "Close": 4914,
      "Ġapplic": 4915,
      ")\",": 4916,
      "CUR": 4917,
      "}\",": 4918,
      "ociated": 4919,
      "hh": 4920,
      "Jo": 4921,
      "':{'": 4922,
      "rb": 4923,
      "LIN": 4924,
      "player": 4925,
      "urface": 4926,
      "mul": 4927,
      "Ġim": 4928,
      "Ġ26": 4929,
      "ĠWARRANTIES": 4930,
      "224": 4931,
      "domain": 4932,
      "SB": 4933,
      "popover": 4934,
      "chain": 4935,
      "vas": 4936,
      "sim": 4937,
      "termin": 4938,
      "Ġwhite": 4939,
      "à¤°": 4940,
      "Ġdr": 4941,
      "ĠWHERE": 4942,
      "ÙĨ": 4943,
      "mazon": 4944,
      "ged": 4945,
      "prev": 4946,
      "INX": 4947,
      "AST": 4948,
      "Ġut": 4949,
      "Ġpas": 4950,
      "Bit": 4951,
      "rmd": 4952,
      "zy": 4953,
      "ĠLoc": 4954,
      "Ġreport": 4955,
      "800": 4956,
      "ĠUser": 4957,
      "stylesheet": 4958,
      "Ġsmall": 4959,
      "CHECK": 4960,
      "Job": 4961,
      "Ġwhether": 4962,
      "properties": 4963,
      "macro": 4964,
      "ÙĪ": 4965,
      "Fail": 4966,
      "Edit": 4967,
      "ĠELSE": 4968,
      "OW": 4969,
      "ually": 4970,
      "profile": 4971,
      "=%": 4972,
      "Xml": 4973,
      "Maybe": 4974,
      "Ġchannel": 4975,
      "Ġfunctions": 4976,
      "Cast": 4977,
      "kernel": 4978,
      ")%": 4979,
      "130": 4980,
      "IPT": 4981,
      "Ġba": 4982,
      "Ġtotal": 4983,
      "ĠPer": 4984,
      "Del": 4985,
      "Ġerrors": 4986,
      "Ġforeach": 4987,
      "Full": 4988,
      "\\+\\_\\+\\+": 4989,
      "Ġrender": 4990,
      "Eng": 4991,
      "short": 4992,
      "fact": 4993,
      "frames": 4994,
      "DEPDIR": 4995,
      "Ġhow": 4996,
      "loop": 4997,
      "fx": 4998,
      "login": 4999,
      "Ġcallback": 5000,
      "HOME": 5001,
      "DATA": 5002,
      "hes": 5003,
      "Ġdir": 5004,
      "pid": 5005,
      "Ġconf": 5006,
      "CREMENT": 5007,
      "Equals": 5008,
      "vision": 5009,
      "ĠĊĠĠĠĠĠĠĠ": 5010,
      "rior": 5011,
      "(@": 5012,
      "conn": 5013,
      "Bool": 5014,
      "Ġbatch": 5015,
      "language": 5016,
      "foundation": 5017,
      "Ġenv": 5018,
      "Ġdetails": 5019,
      "Ġsince": 5020,
      "509": 5021,
      "Helper": 5022,
      "names": 5023,
      "Ġthrough": 5024,
      "ĠMicrosoft": 5025,
      "alth": 5026,
      "aml": 5027,
      "green": 5028,
      "depend": 5029,
      "horizontal": 5030,
      ",*)": 5031,
      "uter": 5032,
      "Ġtemplate": 5033,
      "wner": 5034,
      "atory": 5035,
      "legate": 5036,
      "USE": 5037,
      "MODE": 5038,
      "assign": 5039,
      "ĠMap": 5040,
      "pair": 5041,
      "Boolean": 5042,
      "Ġraw": 5043,
      "quare": 5044,
      "ToString": 5045,
      "dst": 5046,
      "Directory": 5047,
      "acket": 5048,
      "Ġconvert": 5049,
      "ada": 5050,
      "Ġprogram": 5051,
      "à¸": 5052,
      "imit": 5053,
      "Ġ/*!": 5054,
      "batim": 5055,
      "ertificate": 5056,
      "Ġdatabase": 5057,
      "RES": 5058,
      "SOURCE": 5059,
      "thumb": 5060,
      "Ġdi": 5061,
      "Ġtheir": 5062,
      "illa": 5063,
      "Ġ}\\": 5064,
      "Ġhelp": 5065,
      "Db": 5066,
      "Ġawait": 5067,
      "ĠSE": 5068,
      "VT": 5069,
      "mock": 5070,
      "rsp": 5071,
      "112": 5072,
      "DIF": 5073,
      "211": 5074,
      "Ġscope": 5075,
      "ultra": 5076,
      ",,,,": 5077,
      "CRIPT": 5078,
      "amb": 5079,
      "REQU": 5080,
      "helper": 5081,
      ",->": 5082,
      "'.": 5083,
      "calc": 5084,
      "ansport": 5085,
      "Ġflags": 5086,
      "æķ°": 5087,
      "Ġ*)": 5088,
      "à¤ĥ": 5089,
      "/.": 5090,
      "limit": 5091,
      "APP": 5092,
      "ACTER": 5093,
      "Remove": 5094,
      "Tx": 5095,
      "extra": 5096,
      "CPP": 5097,
      "ods": 5098,
      "ĠHash": 5099,
      "UDE": 5100,
      "Ġstructure": 5101,
      "ANGU": 5102,
      "apply": 5103,
      "Ġperform": 5104,
      "ĠVector": 5105,
      "Ġdep": 5106,
      "LIBR": 5107,
      "FORM": 5108,
      "foreach": 5109,
      "DIT": 5110,
      "ired": 5111,
      "ny": 5112,
      "Scope": 5113,
      "Conf": 5114,
      "ĊĠĠĠĠĠĠĠĠĠĠĠĠĠĠĠĠĠĠĠĠĠĠĠĠĠĠĠĠĠĠĠĠĠĠĠĠĠĠĠĠĠĠĠĠĠĠĠĠĠĠĠĠĠĠĠĠĠĠĠĠĠĠĠĠĠĠĠĠĠĠĠĠĠĠĠĠĠĠĠĠĠĠĠĠĠĠĠĠĠĠĠ": 5115,
      "orithm": 5116,
      "oom": 5117,
      "Addr": 5118,
      "Ġsimple": 5119,
      "ĠInter": 5120,
      "constraint": 5121,
      "mer": 5122,
      "Ġwrap": 5123,
      "Ġcontainer": 5124,
      "DEBUG": 5125,
      "REF": 5126,
      "ident": 5127,
      "ĠColor": 5128,
      "ids": 5129,
      "ĠWR": 5130,
      "å¼": 5131,
      "mc": 5132,
      "Long": 5133,
      "ZX": 5134,
      "served": 5135,
      "Profile": 5136,
      "Ġindic": 5137,
      "LOCK": 5138,
      "Post": 5139,
      "INCLUD": 5140,
      "cke": 5141,
      "Ġparam": 5142,
      "Ġexpress": 5143,
      "2006": 5144,
      "record": 5145,
      "=-": 5146,
      "Generic": 5147,
      "Sn": 5148,
      "selection": 5149,
      "33333333": 5150,
      "Ġoptional": 5151,
      "lp": 5152,
      "OM": 5153,
      "IMARY": 5154,
      "Ġapply": 5155,
      "]+": 5156,
      "atar": 5157,
      "æī": 5158,
      "------------------------------------------------": 5159,
      "Player": 5160,
      "vt": 5161,
      "aterial": 5162,
      "href": 5163,
      "Ġkeys": 5164,
      "220": 5165,
      "sap": 5166,
      "sqrt": 5167,
      "éĢ": 5168,
      "Double": 5169,
      "responsive": 5170,
      "=\"\"": 5171,
      "ifest": 5172,
      "Ġio": 5173,
      "Ġloop": 5174,
      "ĠCL": 5175,
      "INCREMENT": 5176,
      "Æ°á»Ŀ": 5177,
      "roke": 5178,
      "cut": 5179,
      "AMP": 5180,
      "700": 5181,
      "ATCH": 5182,
      "Register": 5183,
      "itude": 5184,
      "ZW": 5185,
      "library": 5186,
      "xlnx": 5187,
      "PACK": 5188,
      "goto": 5189,
      "LEN": 5190,
      "Ã³n": 5191,
      "Flow": 5192,
      "datetime": 5193,
      "TAG": 5194,
      "mipitest": 5195,
      "ĠDW": 5196,
      "å°": 5197,
      "shift": 5198,
      "600": 5199,
      "IDE": 5200,
      "SW": 5201,
      "Editor": 5202,
      "Ġsend": 5203,
      "mbda": 5204,
      "Ġ38": 5205,
      "Ġ=~": 5206,
      "Ġ\"#": 5207,
      "Ġthread": 5208,
      "slice": 5209,
      "CF": 5210,
      "&#": 5211,
      "Ġintegr": 5212,
      "ressed": 5213,
      "sizing": 5214,
      "Ġregister": 5215,
      "utorial": 5216,
      "atom": 5217,
      "ĠPh": 5218,
      "Ġbuilder": 5219,
      "session": 5220,
      "reset": 5221,
      "round": 5222,
      "Ġbtn": 5223,
      "273": 5224,
      "Analysis": 5225,
      "Ġpadd": 5226,
      "Ġweb": 5227,
      "Ġwould": 5228,
      ":/": 5229,
      "ico": 5230,
      "Users": 5231,
      "Ġunless": 5232,
      "Ġaws": 5233,
      "year": 5234,
      "curity": 5235,
      "WARE": 5236,
      "lish": 5237,
      "Ġsort": 5238,
      "ĠSpec": 5239,
      "ĠHT": 5240,
      "role": 5241,
      "Dialog": 5242,
      "Ġtensor": 5243,
      "Rect": 5244,
      "Ġexport": 5245,
      "definition": 5246,
      "dash": 5247,
      "æĺ¯": 5248,
      "ĠAd": 5249,
      "parameters": 5250,
      "åº¦": 5251,
      "Ġvirtual": 5252,
      "Dep": 5253,
      "itter": 5254,
      "lare": 5255,
      "Ġproperties": 5256,
      "road": 5257,
      "fast": 5258,
      "Constraint": 5259,
      "sa": 5260,
      "Timeout": 5261,
      "\\\",\\\"": 5262,
      "ernel": 5263,
      "//!": 5264,
      "precated": 5265,
      "Database": 5266,
      "ĠDB": 5267,
      "Ñĩ": 5268,
      "trait": 5269,
      "cart": 5270,
      "SPH": 5271,
      "íķ": 5272,
      "fail": 5273,
      "INS": 5274,
      "untry": 5275,
      "Ġ<>": 5276,
      "Operator": 5277,
      "Ġident": 5278,
      "Ġinstead": 5279,
      "track": 5280,
      "ĠBe": 5281,
      "hr": 5282,
      "proc": 5283,
      "ometry": 5284,
      "android": 5285,
      "SV": 5286,
      "ĠTrans": 5287,
      "Ġstop": 5288,
      "HOUT": 5289,
      "ÑģÑĤ": 5290,
      "Services": 5291,
      "7701": 5292,
      "errors": 5293,
      "ĠSelect": 5294,
      "210": 5295,
      "manager": 5296,
      "ÐµÐ½": 5297,
      "-->": 5298,
      "liance": 5299,
      "Gen": 5300,
      "mu": 5301,
      "ä¹": 5302,
      "Ġfilename": 5303,
      "Ġway": 5304,
      "ested": 5305,
      "Ug": 5306,
      "exports": 5307,
      "Ġ/*!<": 5308,
      "ĠTable": 5309,
      "Fore": 5310,
      "ffffff": 5311,
      "izes": 5312,
      "è¿Ľ": 5313,
      "PREFIX": 5314,
      "Ġgrid": 5315,
      "Ġ54": 5316,
      "Ġgenerate": 5317,
      "2014": 5318,
      "serialize": 5319,
      "Descriptor": 5320,
      "DL": 5321,
      "Found": 5322,
      "Ġ{'": 5323,
      "LICENSE": 5324,
      "ILITY": 5325,
      "ĠTODO": 5326,
      "Ġunit": 5327,
      "----------------------------------------------------------------------------": 5328,
      "upp": 5329,
      "metadata": 5330,
      "LONG": 5331,
      "ĠCOMMENT": 5332,
      "Ġ\"<": 5333,
      "Ġgr": 5334,
      "ByVal": 5335,
      "Dest": 5336,
      "Ġ!==": 5337,
      "Ġinherit": 5338,
      "èĩ": 5339,
      "ari": 5340,
      "Ġclear": 5341,
      "áº¡": 5342,
      "ĠCOLL": 5343,
      "ĠTry": 5344,
      "Attr": 5345,
      "price": 5346,
      "ĠMethod": 5347,
      "Ø±": 5348,
      "Ġput": 5349,
      "esh": 5350,
      "à¤¾": 5351,
      "ird": 5352,
      "Qt": 5353,
      "ASE": 5354,
      "ĊĠĠĠĠĠĠĠĠĠĠĠĠĠĠĠĠĠĠĠĠĠĠĠĠĠĠ": 5355,
      "âĶĢâĶĢ": 5356,
      "Ġreplace": 5357,
      "::{": 5358,
      "Ġocc": 5359,
      "Ġvec": 5360,
      "Ġrole": 5361,
      "Ġequ": 5362,
      "001": 5363,
      "Eq": 5364,
      "ivers": 5365,
      "222": 5366,
      "Region": 5367,
      "spacing": 5368,
      "eek": 5369,
      "BR": 5370,
      "ĠIP": 5371,
      "eps": 5372,
      "compilation": 5373,
      "mob": 5374,
      "urren": 5375,
      "parator": 5376,
      "*,": 5377,
      "150": 5378,
      "Ġsettings": 5379,
      "Æ°á»Ŀng": 5380,
      "123": 5381,
      "TA": 5382,
      "Each": 5383,
      "tor": 5384,
      "DES": 5385,
      "licenses": 5386,
      "generic": 5387,
      "Ġwhat": 5388,
      ".',": 5389,
      "Ġenddo": 5390,
      "ĠSoftware": 5391,
      ";<": 5392,
      "Support": 5393,
      "prop": 5394,
      "ĊĠĠĠĠĠĠĠĠĠĠĠĠĠĠĠĠĠĠĠĠĠĠĠĠĠĠĠĠĠĠ": 5395,
      "ANGUAGE": 5396,
      "Ġtri": 5397,
      "ä¸Ń": 5398,
      "++;": 5399,
      "ĠStart": 5400,
      "Buf": 5401,
      "strip": 5402,
      "COM": 5403,
      "FTWARE": 5404,
      "kw": 5405,
      "Ġnp": 5406,
      "Ġdocumentation": 5407,
      "mdc": 5408,
      "NX": 5409,
      "trie": 5410,
      "Doc": 5411,
      "){.": 5412,
      "Features": 5413,
      "chart": 5414,
      "Ui": 5415,
      "ĠERR": 5416,
      "ĠMessage": 5417,
      "Ġpermissions": 5418,
      "Ġmask": 5419,
      "ĠByte": 5420,
      "shared": 5421,
      "xor": 5422,
      "Ġwriting": 5423,
      "Prefix": 5424,
      "lb": 5425,
      "ĠOptional": 5426,
      "Engine": 5427,
      "ĠCre": 5428,
      "ORY": 5429,
      "SPHINX": 5430,
      "pagination": 5431,
      "Ġmetadata": 5432,
      "ĠCol": 5433,
      "ĠĠĠĠĠĠĠĠĠĠĠĠĠĠĠĠĠĠĠĠ": 5434,
      "230": 5435,
      "216": 5436,
      "KG": 5437,
      "ĠElse": 5438,
      "ĠResource": 5439,
      "512": 5440,
      "OD": 5441,
      "mf": 5442,
      "Sun": 5443,
      "READ": 5444,
      "ips": 5445,
      "Ġstep": 5446,
      "ategories": 5447,
      "arp": 5448,
      "Ġconstant": 5449,
      "dump": 5450,
      "ital": 5451,
      "lain": 5452,
      "ĠPTR": 5453,
      "ojo": 5454,
      "Ġnav": 5455,
      ",->](": 5456,
      "hyperlink": 5457,
      "ensure": 5458,
      "ji": 5459,
      "za": 5460,
      "dy": 5461,
      "Cap": 5462,
      "199": 5463,
      "ĠMake": 5464,
      "Ġdebug": 5465,
      "Install": 5466,
      "Admin": 5467,
      "acc": 5468,
      "ench": 5469,
      "Ġcluster": 5470,
      "variant": 5471,
      "aved": 5472,
      "exception": 5473,
      "Pair": 5474,
      "users": 5475,
      "Ġattributes": 5476,
      "pare": 5477,
      "expect": 5478,
      "usepackage": 5479,
      "Ġ70": 5480,
      "ĠIndex": 5481,
      "serif": 5482,
      "Mock": 5483,
      "ouse": 5484,
      "framework": 5485,
      "duration": 5486,
      "eeded": 5487,
      "mv": 5488,
      "UND": 5489,
      "cker": 5490,
      "Bl": 5491,
      "jp": 5492,
      "Dat": 5493,
      "ario": 5494,
      "Console": 5495,
      "sr": 5496,
      "ĠADD": 5497,
      "pdf": 5498,
      "provider": 5499,
      "ISTS": 5500,
      "sy": 5501,
      ")*(": 5502,
      "download": 5503,
      "detail": 5504,
      "USER": 5505,
      "Ġbeing": 5506,
      "ĠInput": 5507,
      "screen": 5508,
      "LY": 5509,
      "sb": 5510,
      "'))": 5511,
      "Âł": 5512,
      "Ġ/><": 5513,
      "ALTER": 5514,
      "Ġwithin": 5515,
      "250": 5516,
      "%%%%%%%%%%%%%%%%%%%%%%%%%%%%%%%%": 5517,
      "Ġcp": 5518,
      "GF": 5519,
      "identifier": 5520,
      "Ġstat": 5521,
      "One": 5522,
      "Blog": 5523,
      "YX": 5524,
      "Ġcannot": 5525,
      "Ġĉ": 5526,
      "=[": 5527,
      "Ġtx": 5528,
      "lus": 5529,
      "ĠKIND": 5530,
      "Ġbinary": 5531,
      "collection": 5532,
      "Desc": 5533,
      "HTML": 5534,
      "AH": 5535,
      "Flag": 5536,
      "ĠVar": 5537,
      "reshold": 5538,
      "ĠSyntax": 5539,
      "Statement": 5540,
      "Diagnostics": 5541,
      "105": 5542,
      "ifdef": 5543,
      "callback": 5544,
      "Mark": 5545,
      "Ġbr": 5546,
      "]*": 5547,
      "cpl": 5548,
      "Comm": 5549,
      "ooks": 5550,
      "Keyword": 5551,
      "Space": 5552,
      "xp": 5553,
      "passpayload": 5554,
      "Ġtree": 5555,
      "Ġet": 5556,
      "Ġprevious": 5557,
      "ARCHAR": 5558,
      "clar": 5559,
      "Ġmodify": 5560,
      "andatory": 5561,
      "romise": 5562,
      "ĠSUB": 5563,
      "]::": 5564,
      "akes": 5565,
      "ĠCOLLATE": 5566,
      "ĠURL": 5567,
      "Ġstrict": 5568,
      "JECT": 5569,
      "ĠVec": 5570,
      "Ġcommon": 5571,
      ",___": 5572,
      "TC": 5573,
      "Ġadded": 5574,
      "()()": 5575,
      "extern": 5576,
      "ĊĠĠĠĠĠĠĠĠĠĠĠĠĠĠĠĠĠĠĠĠĠĠĠĠĠĠĠĠĠ": 5577,
      ")$": 5578,
      "Ġ04": 5579,
      "Ġkind": 5580,
      "nodes": 5581,
      "VALUES": 5582,
      "ĠGO": 5583,
      "ĠHandle": 5584,
      "classes": 5585,
      "...)": 5586,
      "BE": 5587,
      "TOOL": 5588,
      "ana": 5589,
      "flu": 5590,
      "Protocol": 5591,
      "textcolor": 5592,
      "duce": 5593,
      "tb": 5594,
      "ĠBuild": 5595,
      "Ġrep": 5596,
      "Ġ28": 5597,
      "Queue": 5598,
      "ĠPRIMARY": 5599,
      ".'": 5600,
      "SK": 5601,
      "super": 5602,
      "vp": 5603,
      "spect": 5604,
      "ĠNode": 5605,
      "Ġrequests": 5606,
      "arguments": 5607,
      "cluster": 5608,
      "Ġvertical": 5609,
      "Ġ1000": 5610,
      "rupt": 5611,
      "Media": 5612,
      "\"/": 5613,
      "Ġinvalid": 5614,
      "Ġ5678": 5615,
      "arge": 5616,
      "Ġprotected": 5617,
      "++++++++": 5618,
      "ium": 5619,
      "ĠWRITE": 5620,
      "00000": 5621,
      "closed": 5622,
      "fold": 5623,
      "boo": 5624,
      "testing": 5625,
      "\\#": 5626,
      "bra": 5627,
      "ĠWITHOUT": 5628,
      "children": 5629,
      "craft": 5630,
      "zer": 5631,
      "enable": 5632,
      "Ġprefix": 5633,
      "Step": 5634,
      "igr": 5635,
      "Transform": 5636,
      "arshal": 5637,
      "Ġbased": 5638,
      "Attributes": 5639,
      "placeholder": 5640,
      "ĠPart": 5641,
      "NameLink": 5642,
      "generate": 5643,
      "Shell": 5644,
      "Ġchanges": 5645,
      "ĠWindow": 5646,
      "uggest": 5647,
      "TRUE": 5648,
      "Binding": 5649,
      "uff": 5650,
      "Ny": 5651,
      "Ãª": 5652,
      "vance": 5653,
      "Keys": 5654,
      "AI": 5655,
      "Proxy": 5656,
      "tc": 5657,
      "atio": 5658,
      "Ġcorrect": 5659,
      "ĠRun": 5660,
      "beta": 5661,
      "trace": 5662,
      "Find": 5663,
      "ĠId": 5664,
      "ĠBit": 5665,
      "MAGE": 5666,
      "Ġgraph": 5667,
      "dom": 5668,
      "Plan": 5669,
      "UX": 5670,
      "Ġlibrary": 5671,
      "train": 5672,
      "omite": 5673,
      "justify": 5674,
      "ĠWeb": 5675,
      "SUB": 5676,
      "Ġclose": 5677,
      "Ġ<\\/": 5678,
      "undle": 5679,
      "fol": 5680,
      "video": 5681,
      "/\">": 5682,
      "LIST": 5683,
      "omitempty": 5684,
      "ĠCor": 5685,
      "schemaorg": 5686,
      "Ġ(-": 5687,
      "ĊĠĠĠĠĠĠĠĠĠĠĠĠĠĠĠĠĠĠĠĠĠĠĠĠĠĠĠĠĠĠĠĠĠĠĠĠĠĠĠĠĠĠĠĠĠĠĠ": 5688,
      "=!": 5689,
      "Ġbuf": 5690,
      "SI": 5691,
      "feed": 5692,
      "kyojo": 5693,
      "ĠSymbol": 5694,
      "Condition": 5695,
      "ĠÐ²": 5696,
      "Ind": 5697,
      "Depend": 5698,
      "Ġiss": 5699,
      "ĠHel": 5700,
      "metric": 5701,
      "hicle": 5702,
      "Ġ8010": 5703,
      "logo": 5704,
      "Ġê": 5705,
      "CES": 5706,
      "Product": 5707,
      "Ġexists": 5708,
      "!==": 5709,
      "ithy": 5710,
      "Ġrm": 5711,
      "Ġagre": 5712,
      "Security": 5713,
      "amaz": 5714,
      "Errorf": 5715,
      "windows": 5716,
      "keyframes": 5717,
      "cpu": 5718,
      "Append": 5719,
      "ĠLANGUAGE": 5720,
      "done": 5721,
      "Ġproduct": 5722,
      "created": 5723,
      "So": 5724,
      "neg": 5725,
      "asure": 5726,
      "Ġevery": 5727,
      "Ġ99": 5728,
      "../../../": 5729,
      "connection": 5730,
      "pool": 5731,
      "zone": 5732,
      "ictionary": 5733,
      "Extension": 5734,
      "DX": 5735,
      "Pool": 5736,
      "Ġconnect": 5737,
      "mobile": 5738,
      "ifiers": 5739,
      "ĠQu": 5740,
      "NUM": 5741,
      "ĠBY": 5742,
      "Ġautom": 5743,
      "Ii": 5744,
      "Ġ44": 5745,
      "Ġtbody": 5746,
      "Ġitems": 5747,
      "Ġsave": 5748,
      "operator": 5749,
      "::<": 5750,
      "ERO": 5751,
      "Ġnodes": 5752,
      "čĊĠĠ": 5753,
      "æĿ": 5754,
      "]),": 5755,
      "policy": 5756,
      "slot": 5757,
      "________": 5758,
      "Release": 5759,
      "TEXT": 5760,
      "ignment": 5761,
      "mbers": 5762,
      "sf": 5763,
      "Ġskip": 5764,
      "!=": 5765,
      "ě[": 5766,
      "]/": 5767,
      "Ġ51": 5768,
      "ena": 5769,
      "Ġinv": 5770,
      "333": 5771,
      "bot": 5772,
      "elcome": 5773,
      "Ġequal": 5774,
      "Ġtransaction": 5775,
      "platform": 5776,
      "ĠĊĠ": 5777,
      "2011": 5778,
      "iltin": 5779,
      "ycle": 5780,
      "istent": 5781,
      "toString": 5782,
      "collect": 5783,
      "102": 5784,
      "Ġbl": 5785,
      "ĠAny": 5786,
      "002": 5787,
      "sha": 5788,
      "@@@@": 5789,
      "boolean": 5790,
      "Ġauth": 5791,
      "Details": 5792,
      "Transaction": 5793,
      "shell": 5794,
      "cing": 5795,
      "km": 5796,
      "aged": 5797,
      "required": 5798,
      "ëĭ": 5799,
      "ever": 5800,
      "Ġspecify": 5801,
      "pur": 5802,
      "Ġwho": 5803,
      "ĠLicensed": 5804,
      "random": 5805,
      ")?;": 5806,
      "Mat": 5807,
      "DEX": 5808,
      "Ġcould": 5809,
      "Ġarch": 5810,
      "Ġgover": 5811,
      "103": 5812,
      "unicode": 5813,
      "details": 5814,
      "Ġmove": 5815,
      "ĠSQL": 5816,
      "encode": 5817,
      "Ġ*/;": 5818,
      "Vert": 5819,
      "andid": 5820,
      "104": 5821,
      "%);": 5822,
      "Ġhand": 5823,
      "Ġagain": 5824,
      "attributes": 5825,
      "vendor": 5826,
      "Ġ\"$(": 5827,
      "Ġword": 5828,
      "ptasks": 5829,
      "}:": 5830,
      "social": 5831,
      "adi": 5832,
      "cpptasks": 5833,
      "Ġtab": 5834,
      "Writer": 5835,
      "final": 5836,
      "amazon": 5837,
      "usercontent": 5838,
      "å¯": 5839,
      "Ġ2018": 5840,
      "AWS": 5841,
      "Save": 5842,
      "ĠField": 5843,
      "ÙĬ": 5844,
      "Ġ}}": 5845,
      "Ġswitch": 5846,
      "ĠCHE": 5847,
      "\",[": 5848,
      "Cluster": 5849,
      "crete": 5850,
      "Ġmethods": 5851,
      "bor": 5852,
      "GV": 5853,
      "Ġown": 5854,
      "ales": 5855,
      "big": 5856,
      "async": 5857,
      "()),": 5858,
      "Folder": 5859,
      "ifies": 5860,
      "FROM": 5861,
      "basic": 5862,
      "Ġappend": 5863,
      "utions": 5864,
      "pell": 5865,
      "Plugin": 5866,
      "Ġenum": 5867,
      "DateTime": 5868,
      "/$(": 5869,
      "ĠCase": 5870,
      "PhÆ°á»Ŀng": 5871,
      "IH": 5872,
      "uby": 5873,
      "192": 5874,
      "Ġoriginal": 5875,
      "ĠCType": 5876,
      "(:,": 5877,
      "%\"": 5878,
      "LAB": 5879,
      "Ġnullptr": 5880,
      "Ġcap": 5881,
      "githubusercontent": 5882,
      "ij": 5883,
      "Scal": 5884,
      "Ġrelease": 5885,
      "ellow": 5886,
      "Ġ66": 5887,
      "inv": 5888,
      "spark": 5889,
      "GH": 5890,
      "cla": 5891,
      "hal": 5892,
      "VENT": 5893,
      "usion": 5894,
      "ĊĊĉĉĉ": 5895,
      "ĠIMP": 5896,
      "Ġdes": 5897,
      "GEN": 5898,
      "ALSE": 5899,
      "å¾": 5900,
      "score": 5901,
      "ĠUnit": 5902,
      "/\\": 5903,
      "ĠVer": 5904,
      "BUILDDIR": 5905,
      "å±": 5906,
      "Ġ[`": 5907,
      "Len": 5908,
      "Ġ[],": 5909,
      "contains": 5910,
      "tim": 5911,
      "_)": 5912,
      "PM": 5913,
      "\"].": 5914,
      "cribe": 5915,
      "ĠOutput": 5916,
      "JS": 5917,
      "unique": 5918,
      "props": 5919,
      "ĠUSE": 5920,
      "////////////////////////////////": 5921,
      "Ġenvironment": 5922,
      "%/": 5923,
      "Ġbind": 5924,
      "blog": 5925,
      "Fn": 5926,
      "čĊĉĉĉĉ": 5927,
      "+.": 5928,
      "timeout": 5929,
      "()]": 5930,
      "ĠMAX": 5931,
      "čĊĠĠĠĠĠĠĠĠĠĠĠĠĠĠĠĠĠĠĠĠĠĠĠ": 5932,
      "handler": 5933,
      "Ġcompile": 5934,
      "ti": 5935,
      "Ali": 5936,
      "graphics": 5937,
      "Ġimplied": 5938,
      "Ġpay": 5939,
      "rotate": 5940,
      "Ġmon": 5941,
      "Ġexpression": 5942,
      "Role": 5943,
      "tex": 5944,
      "eno": 5945,
      "submit": 5946,
      "COPY": 5947,
      "partial": 5948,
      "emo": 5949,
      "ĠCHECK": 5950,
      "OST": 5951,
      "Ġjob": 5952,
      "Ġignore": 5953,
      "127": 5954,
      "parameter": 5955,
      "ĠConfig": 5956,
      "tri": 5957,
      "layers": 5958,
      "omb": 5959,
      "Ġicon": 5960,
      "ĠAmazon": 5961,
      "Ġdie": 5962,
      "lug": 5963,
      "206": 5964,
      "Ġnothing": 5965,
      "Ġactual": 5966,
      "hd": 5967,
      "107": 5968,
      "roban": 5969,
      "robante": 5970,
      "Ġsplit": 5971,
      "Hy": 5972,
      "month": 5973,
      "inx": 5974,
      "Shape": 5975,
      "kens": 5976,
      "leep": 5977,
      "Selected": 5978,
      "Ġobjects": 5979,
      "CFLAGS": 5980,
      "NET": 5981,
      "yes": 5982,
      "blockList": 5983,
      "chat": 5984,
      "cons": 5985,
      ":!": 5986,
      "303": 5987,
      "Ġsession": 5988,
      "ILES": 5989,
      "antic": 5990,
      "itemize": 5991,
      "\\'": 5992,
      "åĽ¢": 5993,
      "ĠCo": 5994,
      "\")>": 5995,
      "Ġrsp": 5996,
      "numer": 5997,
      "TypeCommon": 5998,
      "ä¿": 5999,
      "brand": 6000,
      "Clazz": 6001,
      "Impl": 6002,
      "opts": 6003,
      "111": 6004,
      "ond": 6005,
      "parser": 6006,
      "Ġassociated": 6007,
      "newcommand": 6008,
      "GS": 6009,
      "ĠDebug": 6010,
      "Ġapplicable": 6011,
      "æł": 6012,
      "NR": 6013,
      "CXXFLAGS": 6014,
      "Ġunt": 6015,
      "Ġsupported": 6016,
      "Ġbo": 6017,
      "Ġisa": 6018,
      "Total": 6019,
      "Password": 6020,
      "large": 6021,
      "indent": 6022,
      "Ã¤": 6023,
      "acters": 6024,
      "await": 6025,
      "xF": 6026,
      "VAR": 6027,
      "Ġundefined": 6028,
      "Export": 6029,
      "each": 6030,
      "BQ": 6031,
      "atable": 6032,
      "Raw": 6033,
      "Ġqualified": 6034,
      "phy": 6035,
      "ĠCore": 6036,
      "sure": 6037,
      "ĠSource": 6038,
      "nc": 6039,
      "roadcast": 6040,
      "ology": 6041,
      "Div": 6042,
      "hand": 6043,
      "unded": 6044,
      "Ġmultiple": 6045,
      "Math": 6046,
      "Ġdefinition": 6047,
      "IRE": 6048,
      "warn": 6049,
      "reverse": 6050,
      ">;": 6051,
      "volume": 6052,
      "tbody": 6053,
      "******": 6054,
      "ational": 6055,
      "Identifier": 6056,
      "','','": 6057,
      "poch": 6058,
      "IVE": 6059,
      "tl": 6060,
      "ĠALL": 6061,
      "!!!!!!!!": 6062,
      "Ġč": 6063,
      "havior": 6064,
      "ĠEXISTS": 6065,
      "Ġpoints": 6066,
      "Pointer": 6067,
      "Ġhtml": 6068,
      "ĠRequest": 6069,
      "curs": 6070,
      "Join": 6071,
      "derive": 6072,
      "chron": 6073,
      "cret": 6074,
      "Ġaria": 6075,
      "ĠRemove": 6076,
      "mac": 6077,
      "II": 6078,
      "^{": 6079,
      "Ġ\"\")": 6080,
      "Ġtimestamp": 6081,
      "ĠOUT": 6082,
      "Iterator": 6083,
      "Pe": 6084,
      "udo": 6085,
      "atype": 6086,
      "ki": 6087,
      "RC": 6088,
      "ĠCONT": 6089,
      "ĠRed": 6090,
      "srcdir": 6091,
      "ummy": 6092,
      "Resources": 6093,
      "Ġ27": 6094,
      "Ġactive": 6095,
      "Ġalways": 6096,
      "colors": 6097,
      "EP": 6098,
      "CPPFLAGS": 6099,
      "ĠHTML": 6100,
      "`,`": 6101,
      "highlight": 6102,
      "EB": 6103,
      "Layer": 6104,
      "INCLUDES": 6105,
      "alk": 6106,
      "serial": 6107,
      "Ġ{@": 6108,
      "iving": 6109,
      "STATUS": 6110,
      "Ġwait": 6111,
      "ĠRETURN": 6112,
      "RU": 6113,
      "nf": 6114,
      "Ġob": 6115,
      "HTTP": 6116,
      "mpt": 6117,
      "()))": 6118,
      "Scale": 6119,
      "Note": 6120,
      "Platform": 6121,
      "Widget": 6122,
      "DK": 6123,
      "Fv": 6124,
      "Ġ---": 6125,
      "MyBlog": 6126,
      "mine": 6127,
      ".__": 6128,
      "Volume": 6129,
      "Ġenable": 6130,
      "$>": 6131,
      "Ġgen": 6132,
      "pmwiki": 6133,
      "ĠMon": 6134,
      "ters": 6135,
      "Ġshort": 6136,
      "ilar": 6137,
      "Ġside": 6138,
      "ĠVARCHAR": 6139,
      "raries": 6140,
      "ĠĠĠĠĠĠĠĠĠĠĠĠĠĠĠĠĠĠĠĠĠ": 6141,
      "ROUT": 6142,
      "cos": 6143,
      "à¤¤": 6144,
      "CMD": 6145,
      "ĠShared": 6146,
      "cli": 6147,
      "Simple": 6148,
      "imitive": 6149,
      "Pattern": 6150,
      "times": 6151,
      "vd": 6152,
      "ĠCall": 6153,
      "Sql": 6154,
      "132": 6155,
      "YW": 6156,
      "Day": 6157,
      "ights": 6158,
      "MAND": 6159,
      "verbatim": 6160,
      "Ġdoesn": 6161,
      "Pay": 6162,
      "ĠNext": 6163,
      "stalled": 6164,
      "lis": 6165,
      "Ġdomain": 6166,
      "195": 6167,
      "ĠNetwork": 6168,
      "Ġpassed": 6169,
      "Ġpossible": 6170,
      "Sort": 6171,
      "ABILITY": 6172,
      "cision": 6173,
      "cedure": 6174,
      "ship": 6175,
      ";--": 6176,
      "ãĢģ": 6177,
      "INCLUDE": 6178,
      "Ġ05": 6179,
      "Tests": 6180,
      "Ġmock": 6181,
      "Second": 6182,
      "á»ĭ": 6183,
      "Ġ../../../": 6184,
      "blank": 6185,
      "crement": 6186,
      "ĠPath": 6187,
      "ĊĠĠĠĠĠĠĠĠĠĠĠĠĊĠĠĠĠĠĠĠĠĠĠĠ": 6188,
      "Modules": 6189,
      "Ġeffect": 6190,
      "Ġrunning": 6191,
      "å¹": 6192,
      "Ġrandom": 6193,
      "Ġ48": 6194,
      "Nz": 6195,
      "Ġ~=": 6196,
      "sync": 6197,
      "Ġpresent": 6198,
      "nl": 6199,
      "ADDR": 6200,
      "Ċĉĉĉĉĉĉĉĉĉ": 6201,
      "################################################################": 6202,
      "/{": 6203,
      "ĠLI": 6204,
      "DataType": 6205,
      "ĠMan": 6206,
      "Ġlook": 6207,
      "Completion": 6208,
      "108": 6209,
      "igen": 6210,
      "otion": 6211,
      "DWORD": 6212,
      "264": 6213,
      "rief": 6214,
      "ĠException": 6215,
      "LETE": 6216,
      "GG": 6217,
      "Ġbig": 6218,
      "plot": 6219,
      "Ġpred": 6220,
      "ĠULONG": 6221,
      "crypt": 6222,
      "jl": 6223,
      "idad": 6224,
      "Ġday": 6225,
      "hide": 6226,
      "TypeName": 6227,
      "=\"../../../": 6228,
      "'=>": 6229,
      "Ġneeded": 6230,
      "solver": 6231,
      "FP": 6232,
      "Selector": 6233,
      "Ġ02": 6234,
      "Identity": 6235,
      "pename": 6236,
      "Ġunique": 6237,
      "Ġmost": 6238,
      "After": 6239,
      "RENT": 6240,
      "ALUE": 6241,
      "inux": 6242,
      "ĠJust": 6243,
      "Ġbits": 6244,
      "duction": 6245,
      "enabled": 6246,
      "Generator": 6247,
      "è¿Ľåº¦": 6248,
      "éĩ": 6249,
      "flat": 6250,
      "Ġapt": 6251,
      "proxy": 6252,
      "Ġcorrespon": 6253,
      "åľ¨": 6254,
      "Ġ\")": 6255,
      "DULE": 6256,
      "YY": 6257,
      "BASE": 6258,
      "ĠÑģ": 6259,
      "popup": 6260,
      "LP": 6261,
      "ĠBlock": 6262,
      "<?": 6263,
      "enger": 6264,
      "ves": 6265,
      "ĠUP": 6266,
      "columns": 6267,
      "Pipeline": 6268,
      "Ð¾Ð²": 6269,
      "Ġmenu": 6270,
      "æľ¬è¿Ľåº¦": 6271,
      "åĽ¢æľ¬è¿Ľåº¦": 6272,
      "Ð°Ð½": 6273,
      "transaction": 6274,
      "Ġrights": 6275,
      "condition": 6276,
      "ĠWithEvents": 6277,
      "rev": 6278,
      "Ġplayer": 6279,
      "Ġcore": 6280,
      "timestamp": 6281,
      "setup": 6282,
      "Force": 6283,
      "+=": 6284,
      ")$(": 6285,
      "]):": 6286,
      "Ġdefine": 6287,
      "ĠINTENT": 6288,
      "CY": 6289,
      "Duration": 6290,
      "Ġsure": 6291,
      "MI": 6292,
      "Ġfix": 6293,
      "ullable": 6294,
      "ĠĠĠĠĠĠĠĠĠĠĠĠĠĠĠĠĠĠĠĠĠĠ": 6295,
      "\"\\": 6296,
      "ĠStatus": 6297,
      "SDK": 6298,
      "remark": 6299,
      "OPTS": 6300,
      "}}@": 6301,
      "Ġauthor": 6302,
      "Ġeax": 6303,
      "Ġcontaining": 6304,
      "amage": 6305,
      "ĠProject": 6306,
      "0000000": 6307,
      "=/": 6308,
      "Self": 6309,
      "Nothing": 6310,
      "Øª": 6311,
      "ĊĊĠĠĠĠĠĠĠĠĠ": 6312,
      "Ġ##": 6313,
      "Author": 6314,
      "aut": 6315,
      "Ġjustify": 6316,
      "æľī": 6317,
      "rum": 6318,
      "()</": 6319,
      "Sv": 6320,
      "requ": 6321,
      "Assembly": 6322,
      "Sync": 6323,
      "Ġidx": 6324,
      "ĠCHARACTER": 6325,
      "185": 6326,
      "ĠState": 6327,
      "375": 6328,
      "ĠĠĠĠĠĠĠĠĠĠĠĠĠĠĠĠĠĠĠĠĠĠĠ": 6329,
      "âĤ": 6330,
      "ĠSH": 6331,
      "uplic": 6332,
      "Ġí": 6333,
      "wr": 6334,
      "ars": 6335,
      "Compact": 6336,
      "THON": 6337,
      "ison": 6338,
      "DT": 6339,
      "?;": 6340,
      "Ġalg": 6341,
      "InstanceOf": 6342,
      "Bal": 6343,
      "ĠNumber": 6344,
      "Ġbin": 6345,
      "ple": 6346,
      "Ġedge": 6347,
      "ural": 6348,
      "ya": 6349,
      "emph": 6350,
      "ĠWhen": 6351,
      "ied": 6352,
      "coup": 6353,
      "Ġamount": 6354,
      "DP": 6355,
      "pd": 6356,
      "$.": 6357,
      "Elements": 6358,
      "/(": 6359,
      "sph": 6360,
      "Inv": 6361,
      "119": 6362,
      "Ġsequence": 6363,
      "loader": 6364,
      "Ġcho": 6365,
      "Ġstorage": 6366,
      "Ġvia": 6367,
      "datepicker": 6368,
      "deps": 6369,
      "pixel": 6370,
      "ä¸ª": 6371,
      "hex": 6372,
      "Ġshape": 6373,
      "Ġthead": 6374,
      "Ġsets": 6375,
      "Ã¼": 6376,
      "Ãº": 6377,
      "Operand": 6378,
      "POST": 6379,
      "Ġ\">": 6380,
      "calendar": 6381,
      "hw": 6382,
      "Ġjoin": 6383,
      "1111": 6384,
      "PARAMETER": 6385,
      "xE": 6386,
      "ìĿĺ": 6387,
      "Azure": 6388,
      "\\+::": 6389,
      "Ġmaximum": 6390,
      "Span": 6391,
      "cert": 6392,
      "ĠBAS": 6393,
      "Headers": 6394,
      "cols": 6395,
      "ĀĀĀĀĀĀĀĀĀĀĀĀĀĀĀĀ": 6396,
      "*.": 6397,
      "\">(": 6398,
      "Ġcompliance": 6399,
      "Multi": 6400,
      "ubic": 6401,
      "bas": 6402,
      "()).": 6403,
      "alias": 6404,
      ":(": 6405,
      "rw": 6406,
      "Ġeven": 6407,
      "Ġ``": 6408,
      "operation": 6409,
      "Else": 6410,
      "::::": 6411,
      "Ġconditions": 6412,
      "Power": 6413,
      "Ġfe": 6414,
      "204": 6415,
      "ĠAb": 6416,
      "ĠVis": 6417,
      "Ġlaw": 6418,
      "Ġec": 6419,
      "Compat": 6420,
      "trigger": 6421,
      "force": 6422,
      "retch": 6423,
      "redentials": 6424,
      "Bo": 6425,
      "Ġwere": 6426,
      "Ã£o": 6427,
      "Stats": 6428,
      "vars": 6429,
      "covery": 6430,
      "Cor": 6431,
      "tensor": 6432,
      "complete": 6433,
      "Tick": 6434,
      "åĨ": 6435,
      "Selection": 6436,
      "mploy": 6437,
      "Ġremov": 6438,
      "sz": 6439,
      "Ġ$@": 6440,
      "WriteLine": 6441,
      "icode": 6442,
      "aer": 6443,
      "RI": 6444,
      "æŀ": 6445,
      "Ġunsafe": 6446,
      "ferred": 6447,
      "stit": 6448,
      "ARGS": 6449,
      "RIGHT": 6450,
      "Ġenabled": 6451,
      "jmp": 6452,
      "Ġbelow": 6453,
      "plan": 6454,
      "240": 6455,
      "INTER": 6456,
      "Ġcollection": 6457,
      "ĠASSERT": 6458,
      "()>": 6459,
      "bordered": 6460,
      "Ġnet": 6461,
      "contact": 6462,
      "placement": 6463,
      "uy": 6464,
      "140": 6465,
      "Bin": 6466,
      "2005": 6467,
      "ggreg": 6468,
      "ĠMain": 6469,
      "Prob": 6470,
      "mapped": 6471,
      "unch": 6472,
      "Ġpattern": 6473,
      "serve": 6474,
      "Fr": 6475,
      "mult": 6476,
      "zier": 6477,
      "Ġmissing": 6478,
      "],[": 6479,
      "features": 6480,
      "Ġadditional": 6481,
      "jection": 6482,
      "execute": 6483,
      "à¤¿": 6484,
      "Real": 6485,
      "$\\": 6486,
      "Mouse": 6487,
      "VICE": 6488,
      "alg": 6489,
      "ĠDouble": 6490,
      "'),('": 6491,
      "ById": 6492,
      "Cursor": 6493,
      "ĠValid": 6494,
      "iet": 6495,
      "ANG": 6496,
      "143": 6497,
      "Memory": 6498,
      "Ġheaders": 6499,
      "imate": 6500,
      "ago": 6501,
      "Interval": 6502,
      "chn": 6503,
      "ough": 6504,
      "Ġlock": 6505,
      "SSL": 6506,
      "scheduler": 6507,
      "å·": 6508,
      "Ġopts": 6509,
      "special": 6510,
      "typ": 6511,
      "ocus": 6512,
      "ones": 6513,
      "axis": 6514,
      "under": 6515,
      "cellcolor": 6516,
      "->{'": 6517,
      "Ġ@_;": 6518,
      "144": 6519,
      "simple": 6520,
      "ĠNum": 6521,
      "dates": 6522,
      "lier": 6523,
      "(:,:": 6524,
      "Ġfixed": 6525,
      "loaded": 6526,
      "HS": 6527,
      "mal": 6528,
      "utral": 6529,
      "Rate": 6530,
      "You": 6531,
      "Ġic": 6532,
      "pret": 6533,
      "Ġpython": 6534,
      "Ġupper": 6535,
      "AU": 6536,
      "overlay": 6537,
      "tick": 6538,
      "/)": 6539,
      "ano": 6540,
      "/$": 6541,
      "convert": 6542,
      "diag": 6543,
      "ĠControl": 6544,
      "Ġschema": 6545,
      "Language": 6546,
      "tutorial": 6547,
      "aper": 6548,
      "165": 6549,
      "Ġplugin": 6550,
      "REM": 6551,
      "grow": 6552,
      "hc": 6553,
      "eval": 6554,
      "135": 6555,
      "]))": 6556,
      "gif": 6557,
      "Success": 6558,
      "Mi": 6559,
      "STRA": 6560,
      "ience": 6561,
      "eff": 6562,
      "destroy": 6563,
      "ordin": 6564,
      "-\\": 6565,
      "ĠLOG": 6566,
      "ĊĠĠĠĠĠĠĠĠĠĠĠĠĠĠĠĠĠĠĠĠĠĠĠĠĠĠĠĠ": 6567,
      "ned": 6568,
      "Ġsq": 6569,
      "timer": 6570,
      "čĊčĊĠ": 6571,
      "=\"-": 6572,
      "BY": 6573,
      "ao": 6574,
      "OLD": 6575,
      "gnu": 6576,
      "124": 6577,
      "libbitcoinqt": 6578,
      "NV": 6579,
      "ĠHTTP": 6580,
      "ĠByVal": 6581,
      "ĠGoogle": 6582,
      "logger": 6583,
      "]],[[": 6584,
      "æĢ": 6585,
      "å¸Ĥ": 6586,
      "land": 6587,
      "orter": 6588,
      "ĠPAR": 6589,
      "okie": 6590,
      "UUID": 6591,
      "Ġ199": 6592,
      "Ġmember": 6593,
      "lv": 6594,
      "dq": 6595,
      "çĽ": 6596,
      "+\"": 6597,
      "GINE": 6598,
      "Ġexisting": 6599,
      "Qg": 6600,
      "Binary": 6601,
      "Clear": 6602,
      "Ġgit": 6603,
      "Ġslot": 6604,
      "_->": 6605,
      "ĠCONDIT": 6606,
      "Ġaddresses": 6607,
      "------": 6608,
      "%.": 6609,
      "aR": 6610,
      "Strip": 6611,
      "ROUTINE": 6612,
      "éĹ": 6613,
      "fficient": 6614,
      "Literal": 6615,
      "Ġgoverning": 6616,
      "bn": 6617,
      "apis": 6618,
      "BS": 6619,
      "ograph": 6620,
      "Ġevents": 6621,
      "wt": 6622,
      "RY": 6623,
      ">();": 6624,
      "Ġ2020": 6625,
      "121": 6626,
      "]}": 6627,
      "IA": 6628,
      "rec": 6629,
      "Ġsent": 6630,
      "UBLE": 6631,
      "hook": 6632,
      "uD": 6633,
      "bR": 6634,
      "lambda": 6635,
      "à¤µ": 6636,
      "series": 6637,
      "agent": 6638,
      "Verify": 6639,
      "ĠLoad": 6640,
      "textarea": 6641,
      "Ġselected": 6642,
      "ĠReadOnly": 6643,
      "ival": 6644,
      "delay": 6645,
      "Rece": 6646,
      "onic": 6647,
      "Ġ.=": 6648,
      "Classes": 6649,
      "Ġ31": 6650,
      "XXXX": 6651,
      "same": 6652,
      "Ġ\".": 6653,
      "aker": 6654,
      "vet": 6655,
      "Seq": 6656,
      "232": 6657,
      "FUN": 6658,
      "??": 6659,
      "Ġlat": 6660,
      "Ġimpl": 6661,
      "wbr": 6662,
      "80100": 6663,
      "kan": 6664,
      "ysical": 6665,
      "writ": 6666,
      "lbl": 6667,
      "mitted": 6668,
      "throw": 6669,
      "CHAR": 6670,
      "Ki": 6671,
      "Ġdiff": 6672,
      "Dict": 6673,
      "à®": 6674,
      "suffix": 6675,
      "chedule": 6676,
      ".(": 6677,
      "Ġ[\\#": 6678,
      "lates": 6679,
      "ĠBASIS": 6680,
      "Ġ41": 6681,
      "Ġtags": 6682,
      "exists": 6683,
      "Dev": 6684,
      "AVE": 6685,
      "ĠShould": 6686,
      "Endpoint": 6687,
      "ĠCONDITIONS": 6688,
      "game": 6689,
      "services": 6690,
      "Comment": 6691,
      "UST": 6692,
      "Required": 6693,
      "ĠWOR": 6694,
      "ROP": 6695,
      "Ġhigh": 6696,
      "iment": 6697,
      "109": 6698,
      "slide": 6699,
      "grade": 6700,
      "Category": 6701,
      "webix": 6702,
      "rest": 6703,
      "bv": 6704,
      "Ġ300": 6705,
      "MF": 6706,
      "}}}": 6707,
      "asy": 6708,
      "Returns": 6709,
      "Ġidentifier": 6710,
      "ina": 6711,
      "\\\";'),('": 6712,
      "Tags": 6713,
      "FILES": 6714,
      "'},": 6715,
      "ko": 6716,
      "(${": 6717,
      "-------": 6718,
      "Direct": 6719,
      "çī": 6720,
      "Ġentity": 6721,
      "Ġrout": 6722,
      "Traits": 6723,
      "LBL": 6724,
      "Logger": 6725,
      "front": 6726,
      "$_": 6727,
      "banner": 6728,
      "Cmdlet": 6729,
      "FER": 6730,
      "Gu": 6731,
      "Off": 6732,
      "rgb": 6733,
      "ä¼": 6734,
      "IAL": 6735,
      ",\\": 6736,
      "owner": 6737,
      "literal": 6738,
      "letter": 6739,
      "Ġgu": 6740,
      "ĠÐ½": 6741,
      "rv": 6742,
      "()));": 6743,
      "scriptor": 6744,
      "touch": 6745,
      "Section": 6746,
      "ç§": 6747,
      "uce": 6748,
      "pad": 6749,
      "Environment": 6750,
      "folder": 6751,
      "Ġss": 6752,
      "~\\": 6753,
      "Ġ&'": 6754,
      "ĠUI": 6755,
      "NG": 6756,
      "blob": 6757,
      "xA": 6758,
      "Ġ29": 6759,
      "114": 6760,
      "Ġcopyright": 6761,
      "Game": 6762,
      "á»ĩ": 6763,
      "prior": 6764,
      "tf": 6765,
      "Ġprintf": 6766,
      "ï»": 6767,
      "allel": 6768,
      "Mesh": 6769,
      "Stop": 6770,
      "cluding": 6771,
      "(\"/": 6772,
      "225": 6773,
      "Visible": 6774,
      "security": 6775,
      "brief": 6776,
      "Props": 6777,
      "Ġanother": 6778,
      "Ġagreed": 6779,
      "erc": 6780,
      "Ġmodels": 6781,
      "Ġ03": 6782,
      "Ġapi": 6783,
      "Wrapper": 6784,
      "ategy": 6785,
      "=>'": 6786,
      "ĠTEST": 6787,
      "lah": 6788,
      "ĠAct": 6789,
      "Ġ@{": 6790,
      "ĠPrint": 6791,
      ":'": 6792,
      "hline": 6793,
      "libs": 6794,
      "ĠAL": 6795,
      "}@": 6796,
      "orth": 6797,
      "Ð¿": 6798,
      "137": 6799,
      "Some": 6800,
      "245": 6801,
      "âĢĻ": 6802,
      "Mut": 6803,
      "ĠSOFTWARE": 6804,
      "wer": 6805,
      "ĠCMake": 6806,
      "205": 6807,
      "Ġxs": 6808,
      "ĠWindows": 6809,
      "Conn": 6810,
      "middle": 6811,
      "aps": 6812,
      "high": 6813,
      "LIBRARY": 6814,
      "Ġreserved": 6815,
      "ih": 6816,
      "Ġencode": 6817,
      "dashboard": 6818,
      "wallet": 6819,
      "ĠâĢ": 6820,
      "Ġmerge": 6821,
      "ĠMem": 6822,
      "Ġaccept": 6823,
      "STRAINT": 6824,
      "XML": 6825,
      "inverse": 6826,
      "Ġsetup": 6827,
      "star": 6828,
      "************************************************************************": 6829,
      "conv": 6830,
      "xFF": 6831,
      "Warning": 6832,
      "nu": 6833,
      "uses": 6834,
      "TextBox": 6835,
      "neutral": 6836,
      "Ġ(_": 6837,
      "666666": 6838,
      "ONT": 6839,
      "ÐµÑĢ": 6840,
      "remarks": 6841,
      "Gr": 6842,
      "Ġtake": 6843,
      "istics": 6844,
      "while": 6845,
      "plus": 6846,
      "ĠGu": 6847,
      "à¤®": 6848,
      "136": 6849,
      "Proto": 6850,
      "tle": 6851,
      "Ġsetting": 6852,
      "anchor": 6853,
      "memory": 6854,
      "=\\": 6855,
      "00000000000000000000000000000000000000000000000000000000000000000000000000000000000000000000000000000000000000000000000000000000": 6856,
      "inu": 6857,
      "amma": 6858,
      "Ġserial": 6859,
      "LINK": 6860,
      "categories": 6861,
      "244": 6862,
      "lements": 6863,
      "Ġ{{": 6864,
      "asInstanceOf": 6865,
      "avatar": 6866,
      "Ġedit": 6867,
      "ORE": 6868,
      "lc": 6869,
      "sample": 6870,
      "Ġ\"\";": 6871,
      "Ġdrop": 6872,
      "ï»¿": 6873,
      "Ġmessages": 6874,
      "TX": 6875,
      "æĶ": 6876,
      "CN": 6877,
      "square": 6878,
      "ases": 6879,
      "TIME": 6880,
      "UInt": 6881,
      "urrency": 6882,
      "Summary": 6883,
      "AW": 6884,
      "pu": 6885,
      "133": 6886,
      "Program": 6887,
      "fony": 6888,
      "icate": 6889,
      "INUE": 6890,
      "Effect": 6891,
      "rypto": 6892,
      "ynchron": 6893,
      ")));": 6894,
      "oll": 6895,
      "ENABLE": 6896,
      "æİ": 6897,
      "trim": 6898,
      "Ġexpr": 6899,
      ";\">": 6900,
      "Ġlimitations": 6901,
      "Pop": 6902,
      "ured": 6903,
      "ĠStruct": 6904,
      "bul": 6905,
      "Wait": 6906,
      "DV": 6907,
      "ĠLocal": 6908,
      "ĠUsing": 6909,
      "ĠDelete": 6910,
      "zm": 6911,
      "Ġexception": 6912,
      "UTH": 6913,
      "tcx": 6914,
      "entication": 6915,
      "Ġconstraint": 6916,
      "Ġassign": 6917,
      "rypt": 6918,
      "Il": 6919,
      "nome": 6920,
      "pk": 6921,
      "ble": 6922,
      "Ġuses": 6923,
      "ini": 6924,
      "ifact": 6925,
      "pearance": 6926,
      "Errors": 6927,
      "Batch": 6928,
      "ĠService": 6929,
      ".$(": 6930,
      "}&": 6931,
      "Enable": 6932,
      "----------": 6933,
      "Ġ```": 6934,
      "bezier": 6935,
      "UNIT": 6936,
      ":?": 6937,
      "Allow": 6938,
      "unicip": 6939,
      "LOCAL": 6940,
      "ric": 6941,
      "Ġpassword": 6942,
      "Ġsn": 6943,
      "Oi": 6944,
      "CALL": 6945,
      "ĠDec": 6946,
      "Ġ'-": 6947,
      "ĠShow": 6948,
      "istic": 6949,
      "Ġlines": 6950,
      "ä¸į": 6951,
      "Ġvolume": 6952,
      "COMPIL": 6953,
      "XG": 6954,
      "åĩ": 6955,
      "decode": 6956,
      "ilities": 6957,
      "Ob": 6958,
      "Ġ09": 6959,
      "Ġ42": 6960,
      "JM": 6961,
      "undefined": 6962,
      "velop": 6963,
      "lua": 6964,
      "fil": 6965,
      "198": 6966,
      ";\"": 6967,
      "VP": 6968,
      "osite": 6969,
      "LM": 6970,
      "TF": 6971,
      "ç½": 6972,
      "Ø§ÙĦ": 6973,
      "Prop": 6974,
      ">::": 6975,
      "Machine": 6976,
      "\",{": 6977,
      "============": 6978,
      "PYZ": 6979,
      "gov": 6980,
      "Ġtyp": 6981,
      "..\\": 6982,
      "lne": 6983,
      "<:": 6984,
      "Ø¯": 6985,
      "loading": 6986,
      "ĊĊĊĠĠĠ": 6987,
      "320": 6988,
      "medium": 6989,
      ";;;;;;;;": 6990,
      "Ã¶": 6991,
      "214": 6992,
      "~~~~~~~~~~~~~~~~": 6993,
      "pattern": 6994,
      "mouse": 6995,
      ";\\": 6996,
      "Ġmany": 6997,
      "Arguments": 6998,
      "wa": 6999,
      "LN": 7000,
      "Ġimplementation": 7001,
      "asn": 7002,
      "GroupName": 7003,
      "ĠAc": 7004,
      "stable": 7005,
      "Ġdraw": 7006,
      "ĠWork": 7007,
      "Texture": 7008,
      "ement": 7009,
      "126": 7010,
      "129": 7011,
      "115": 7012,
      "minecraft": 7013,
      "ĠCan": 7014,
      "protocol": 7015,
      "428": 7016,
      "Ġdesc": 7017,
      "Ġ----------------------------------------------------------------": 7018,
      "hY": 7019,
      "nth": 7020,
      "106": 7021,
      "anga": 7022,
      "Ġrem": 7023,
      "atest": 7024,
      "Capture": 7025,
      "Nj": 7026,
      "ĠExec": 7027,
      "ĠMod": 7028,
      "æĹ¶": 7029,
      ".)": 7030,
      "pf": 7031,
      "Ġevalu": 7032,
      "(\"\\": 7033,
      "-----": 7034,
      "ours": 7035,
      "eeee": 7036,
      "IMAGE": 7037,
      "Track": 7038,
      "Uri": 7039,
      "Word": 7040,
      "Bg": 7041,
      "ĠWelcome": 7042,
      "resources": 7043,
      "æ³": 7044,
      "ĠClo": 7045,
      "Ġsample": 7046,
      "Ġpers": 7047,
      "upy": 7048,
      "mar": 7049,
      "Ġlayer": 7050,
      "Ġconstructor": 7051,
      "readcr": 7052,
      "den": 7053,
      "čĊčĊĠĠĠĠĠĠĠĠĠĠĠ": 7054,
      "Ġgot": 7055,
      "passenger": 7056,
      "Ġrules": 7057,
      "Ġcompute": 7058,
      "updated": 7059,
      "Ġcharacters": 7060,
      "ATED": 7061,
      "Const": 7062,
      "iÃ³n": 7063,
      "ĠConstraint": 7064,
      "nv": 7065,
      "666667": 7066,
      "optional": 7067,
      "onal": 7068,
      "768": 7069,
      "Route": 7070,
      "LOAD": 7071,
      "ĠINFO": 7072,
      "ateway": 7073,
      "adoop": 7074,
      ")->": 7075,
      "Ġconn": 7076,
      "166": 7077,
      ";/": 7078,
      "Execution": 7079,
      "Lens": 7080,
      "Nodes": 7081,
      "effect": 7082,
      "ĠCONTINUE": 7083,
      "BD": 7084,
      "Character": 7085,
      "LTE": 7086,
      "hello": 7087,
      "Ġregion": 7088,
      "ĠDescription": 7089,
      "iness": 7090,
      ".\")": 7091,
      "Expected": 7092,
      "database": 7093,
      "Abs": 7094,
      "boost": 7095,
      "LOB": 7096,
      "1456": 7097,
      "226": 7098,
      "Ġqt": 7099,
      "NAL": 7100,
      "Ġ'%": 7101,
      "FFIX": 7102,
      "219": 7103,
      "validate": 7104,
      "Symbols": 7105,
      "umerate": 7106,
      "~.": 7107,
      "Ġdiag": 7108,
      "rax": 7109,
      "hip": 7110,
      "Ã§": 7111,
      "Ñħ": 7112,
      "215": 7113,
      "Ġlower": 7114,
      "usic": 7115,
      "bounds": 7116,
      "fh": 7117,
      "changed": 7118,
      "čĊĠĠĠĠĠĠĠĠ": 7119,
      "PROJECT": 7120,
      "Limit": 7121,
      "Ne": 7122,
      "ĠCal": 7123,
      "Ġestado": 7124,
      "Cloud": 7125,
      "168": 7126,
      "etter": 7127,
      "pulumi": 7128,
      "like": 7129,
      "Ġmiddle": 7130,
      "ĠBO": 7131,
      "latest": 7132,
      "Ġtopic": 7133,
      "ham": 7134,
      "Unknown": 7135,
      "Private": 7136,
      "hspace": 7137,
      "VC": 7138,
      "rr": 7139,
      "smithy": 7140,
      "Ġpixel": 7141,
      "Ġwallet": 7142,
      "Ġknow": 7143,
      "chunk": 7144,
      "ĠDet": 7145,
      "xu": 7146,
      "Ġ'$": 7147,
      "username": 7148,
      "Ġ(@": 7149,
      "FOR": 7150,
      "Ġ!!": 7151,
      "Ġpaddq": 7152,
      "sess": 7153,
      "Ġparser": 7154,
      "ocation": 7155,
      "Tensor": 7156,
      "Collections": 7157,
      "olved": 7158,
      "ĠOPT": 7159,
      "361": 7160,
      "qq": 7161,
      "ONENT": 7162,
      "Ġupdated": 7163,
      "ĠServer": 7164,
      "Ġtypeof": 7165,
      "packages": 7166,
      "ï¼ļ": 7167,
      "ĠImGui": 7168,
      "IMP": 7169,
      "HEAD": 7170,
      "Scroll": 7171,
      "234": 7172,
      "rome": 7173,
      "201": 7174,
      "Ġng": 7175,
      "folio": 7176,
      "Ġsys": 7177,
      "Insert": 7178,
      "equation": 7179,
      "shr": 7180,
      "ÑĨ": 7181,
      "dataset": 7182,
      "IBUT": 7183,
      "Ġexecute": 7184,
      "Ġproto": 7185,
      "uuid": 7186,
      "Ġterms": 7187,
      "ĠSP": 7188,
      "EGIN": 7189,
      "depth": 7190,
      "ĊĠĠĠĠĊĠĠĠĠ": 7191,
      "Ġrgb": 7192,
      "ORS": 7193,
      "La": 7194,
      "è§": 7195,
      "PROC": 7196,
      "cite": 7197,
      "{},": 7198,
      "čĊĠĠĠĠĠĠĠĠĠ": 7199,
      "Ġ74": 7200,
      "Progress": 7201,
      "'''": 7202,
      "See": 7203,
      "Members": 7204,
      "ges": 7205,
      "æĸĩ": 7206,
      "llum": 7207,
      "navigation": 7208,
      "Cr": 7209,
      "170": 7210,
      "PIO": 7211,
      ">\"": 7212,
      "Background": 7213,
      "Ġconsole": 7214,
      "Ġstrings": 7215,
      "cape": 7216,
      "ached": 7217,
      "multi": 7218,
      "Ġduring": 7219,
      "Ġnotice": 7220,
      "Sig": 7221,
      "Move": 7222,
      "Ġleast": 7223,
      "EMP": 7224,
      "Mapping": 7225,
      "Ġ<$>": 7226,
      "disable": 7227,
      "ä¸º": 7228,
      "Ġtrack": 7229,
      "Ġuntil": 7230,
      "fw": 7231,
      "atically": 7232,
      "failed": 7233,
      "Ġresources": 7234,
      "Ġ500": 7235,
      "ĠAsync": 7236,
      "des": 7237,
      "=${": 7238,
      "Ah": 7239,
      "WI": 7240,
      "Ġstandard": 7241,
      "ĠChange": 7242,
      "ining": 7243,
      "Rec": 7244,
      "QQ": 7245,
      "Ġusers": 7246,
      "views": 7247,
      "900": 7248,
      "ĠENDIF": 7249,
      "city": 7250,
      "por": 7251,
      "elem": 7252,
      "textit": 7253,
      "Convert": 7254,
      "ĠEnable": 7255,
      "embed": 7256,
      "117": 7257,
      "Ġmight": 7258,
      "seconds": 7259,
      "ĠOverride": 7260,
      "illi": 7261,
      "Agent": 7262,
      "ĠContext": 7263,
      "Ġwell": 7264,
      "ĠAWS": 7265,
      "Framework": 7266,
      "Ġappro": 7267,
      "tbl": 7268,
      "Mask": 7269,
      "Ġ400": 7270,
      "Ġchanged": 7271,
      "controls": 7272,
      "ads": 7273,
      "ĠUnless": 7274,
      "iagnostic": 7275,
      "Failure": 7276,
      "Ġreset": 7277,
      "TES": 7278,
      "upyter": 7279,
      "ively": 7280,
      "ragment": 7281,
      "TI": 7282,
      "Ġdescri": 7283,
      "controller": 7284,
      "æį": 7285,
      "sequence": 7286,
      "EventListener": 7287,
      "ĠAwait": 7288,
      "unity": 7289,
      "dwattr": 7290,
      "Ġpairs": 7291,
      "Ġmeans": 7292,
      "UTF": 7293,
      "MODULE": 7294,
      "Arch": 7295,
      "TK": 7296,
      "ĠTe": 7297,
      "rece": 7298,
      "skin": 7299,
      "Ġraise": 7300,
      "ĠRegister": 7301,
      "createElement": 7302,
      "Ġmunicip": 7303,
      "625": 7304,
      "ivot": 7305,
      "Li": 7306,
      "å½": 7307,
      "Lower": 7308,
      "ICAL": 7309,
      "UPDATE": 7310,
      "cost": 7311,
      "ASH": 7312,
      "riority": 7313,
      "ĠÏ": 7314,
      "ĠÐ¸": 7315,
      "fieldset": 7316,
      "amount": 7317,
      "STATE": 7318,
      "hpp": 7319,
      "Ùĩ": 7320,
      "pipe": 7321,
      "^-": 7322,
      "Drop": 7323,
      "lies": 7324,
      "visit": 7325,
      "Ġmunicipios": 7326,
      "Ċĉĉĉĉĉĉĉĉĉĉĉĉĉĉ": 7327,
      "Ġ52": 7328,
      "Ġ\"+": 7329,
      "WIN": 7330,
      "NA": 7331,
      "mid": 7332,
      "242": 7333,
      "iterator": 7334,
      "WH": 7335,
      "deb": 7336,
      "acion": 7337,
      "Ġ{};": 7338,
      "Ġrows": 7339,
      "RECT": 7340,
      "ole": 7341,
      "Loop": 7342,
      "ĠConvert": 7343,
      "ancell": 7344,
      "Ġ65": 7345,
      "Ġsuccessful": 7346,
      "åĮĹ": 7347,
      "Ġ%%": 7348,
      "207": 7349,
      "Ġbar": 7350,
      "Ġatt": 7351,
      "}),": 7352,
      "lluminate": 7353,
      "=\"\">": 7354,
      "Ġcop": 7355,
      "ĊĉĉĊĉ": 7356,
      "ĊĠĠĠĠĠĠĠĠĠĠĠĠĠĠĠĠĠĠĠĠĠĠĠĠĠĠĠĠĠĠĠĠĠĠĠĠ": 7357,
      "design": 7358,
      "Points": 7359,
      "ĠImage": 7360,
      "ĠÄĳ": 7361,
      "Poly": 7362,
      "XY": 7363,
      "directory": 7364,
      "}\\\\": 7365,
      "Ġmeta": 7366,
      "ĠERROR": 7367,
      "Begin": 7368,
      "Ġdescribe": 7369,
      "Java": 7370,
      "Ġcover": 7371,
      "binary": 7372,
      "zd": 7373,
      "Ġam": 7374,
      "VALUE": 7375,
      "ots": 7376,
      "groups": 7377,
      "ARNING": 7378,
      "875": 7379,
      "ression": 7380,
      "some": 7381,
      "âķ": 7382,
      "ComponentModel": 7383,
      "CV": 7384,
      "ĠLens": 7385,
      "Split": 7386,
      "ĠGroup": 7387,
      "Ġmath": 7388,
      "AVA": 7389,
      "ĠTraits": 7390,
      "Activity": 7391,
      "BT": 7392,
      "ading": 7393,
      "$,": 7394,
      "sif": 7395,
      "CCESS": 7396,
      "labels": 7397,
      "ĠLong": 7398,
      "eldb": 7399,
      "ula": 7400,
      "Usage": 7401,
      ">&#": 7402,
      "ĠCom": 7403,
      "xi": 7404,
      "ulture": 7405,
      "á»į": 7406,
      "Ġruntime": 7407,
      "Ġsans": 7408,
      "ifn": 7409,
      "buff": 7410,
      "Validate": 7411,
      "%<": 7412,
      "URI": 7413,
      "Ġxmlns": 7414,
      "sar": 7415,
      "tries": 7416,
      "ĠDATA": 7417,
      "console": 7418,
      "ircle": 7419,
      "moc": 7420,
      "Help": 7421,
      "Free": 7422,
      "aes": 7423,
      "links": 7424,
      "Ġkeep": 7425,
      "rp": 7426,
      "Tables": 7427,
      "ĠWH": 7428,
      "Trace": 7429,
      "'re": 7430,
      "selector": 7431,
      "Term": 7432,
      "vn": 7433,
      "Ġusize": 7434,
      "ippe": 7435,
      "Ġcolumns": 7436,
      "ĠWORK": 7437,
      "OFF": 7438,
      "ĠBool": 7439,
      "pages": 7440,
      "ĠCONSTRAINT": 7441,
      "Alloc": 7442,
      "loyment": 7443,
      "factor": 7444,
      "Ð·": 7445,
      "timeline": 7446,
      "Ġprecision": 7447,
      "Ġmean": 7448,
      "ĠFrom": 7449,
      "VEL": 7450,
      "mix": 7451,
      "118": 7452,
      "NN": 7453,
      "TMP": 7454,
      "Missing": 7455,
      "265": 7456,
      "148": 7457,
      "BER": 7458,
      "DY": 7459,
      "ando": 7460,
      "Ġ($(": 7461,
      "cessary": 7462,
      "ĠMin": 7463,
      "(\"%": 7464,
      "lastic": 7465,
      "Ġatom": 7466,
      "Ġneeds": 7467,
      "167": 7468,
      "RM": 7469,
      "writer": 7470,
      "190": 7471,
      "watch": 7472,
      "socket": 7473,
      "ĠHt": 7474,
      "configuration": 7475,
      "irror": 7476,
      "ĠENGINE": 7477,
      "AJ": 7478,
      "ipo": 7479,
      "rank": 7480,
      "2013": 7481,
      "ĠFloat": 7482,
      "Contains": 7483,
      "Repository": 7484,
      "175": 7485,
      "PU": 7486,
      "yellow": 7487,
      "compare": 7488,
      "ĠSUBROUTINE": 7489,
      "rand": 7490,
      "Ġdependencies": 7491,
      "cipe": 7492,
      "ayes": 7493,
      "188": 7494,
      "priv": 7495,
      "vetica": 7496,
      "Connect": 7497,
      "bus": 7498,
      "clip": 7499,
      "ĠMath": 7500,
      "Big": 7501,
      "Ġden": 7502,
      "Ġonce": 7503,
      "pin": 7504,
      "ĠÄĲ": 7505,
      "Management": 7506,
      "252": 7507,
      "mag": 7508,
      "Workspace": 7509,
      "ATOR": 7510,
      "................": 7511,
      "ĠFix": 7512,
      "Ġneg": 7513,
      "Decl": 7514,
      "Ġ[$": 7515,
      "yaml": 7516,
      "Ġlow": 7517,
      "HOST": 7518,
      "team": 7519,
      "Ġpolicy": 7520,
      "claration": 7521,
      "ÛĮ": 7522,
      "ifndef": 7523,
      "sta": 7524,
      "robanteFact": 7525,
      "gcc": 7526,
      "116": 7527,
      "gon": 7528,
      "Hub": 7529,
      "Chain": 7530,
      "ĊĠĠĠĠĠĠĠĠĠĠĠĠĠĠĠĠĠĠĠĠĠĠĠĠĠĠĠĠĠĠĠĠĠĠ": 7531,
      "Ġutil": 7532,
      "pat": 7533,
      "mes": 7534,
      "QUE": 7535,
      "missing": 7536,
      "ancellation": 7537,
      "Ġplan": 7538,
      "interval": 7539,
      "LC": 7540,
      "-----------": 7541,
      "Compilation": 7542,
      "Ġtoo": 7543,
      "Ġprintln": 7544,
      "NAM": 7545,
      "Win": 7546,
      "rust": 7547,
      "757": 7548,
      "ordinates": 7549,
      "EF": 7550,
      "TS": 7551,
      "Signature": 7552,
      "Ġavoid": 7553,
      "mini": 7554,
      "ĠOnly": 7555,
      "rial": 7556,
      "Art": 7557,
      "145": 7558,
      "Ġ----------------": 7559,
      "ARD": 7560,
      "AIN": 7561,
      "hadoop": 7562,
      "THER": 7563,
      "è·": 7564,
      "315": 7565,
      "Border": 7566,
      "Ġdt": 7567,
      "rsi": 7568,
      "Mandatory": 7569,
      ")',": 7570,
      "room": 7571,
      "TRIBUT": 7572,
      "ĠReal": 7573,
      "}!": 7574,
      "\"==": 7575,
      "upper": 7576,
      "Sm": 7577,
      "UV": 7578,
      "bash": 7579,
      "Ġ[#": 7580,
      "Ġlater": 7581,
      "Socket": 7582,
      "LTER": 7583,
      "scan": 7584,
      "270": 7585,
      "idual": 7586,
      "istribution": 7587,
      "Ġhandler": 7588,
      "veloper": 7589,
      "mdi": 7590,
      "ĊĠĠĠĠĠĠĠĠĠĠĠĠĠĠĠĠĠĠĠĠĠĠĠĠĠĠĠĠĠĠĠĠĠĠĠĠĠĠĠĠĠĠĠĠĠĠĠĠĠĠĠ": 7591,
      "ulia": 7592,
      "INIT": 7593,
      "ĠPage": 7594,
      "defer": 7595,
      "was": 7596,
      "ino": 7597,
      "Design": 7598,
      "TabIndex": 7599,
      "`:": 7600,
      "leave": 7601,
      "Ġfoo": 7602,
      "Ġplatform": 7603,
      "Ids": 7604,
      "ione": 7605,
      "007": 7606,
      "čĊčĊč": 7607,
      "STRING": 7608,
      "azure": 7609,
      "verb": 7610,
      "timing": 7611,
      "ĠĠĠĠĠĠĠĠĠĠĠĠĠĠĠĠĠĠĠĠĠĠĠĠĠĠĠĠĠĠĠĠĠĠĠĠĠĠĠĠĠĠĠĠĠĠĠĠĠĠĠĠĠĠĠĠĠĠĠĠĠĠĠĠĠĠĠĠĠĠĠĠĠĠĠĠĠĠĠĠĠĠĠĠĠĠĠĠĠĠĠĠĠĠĠĠĠĠĠĠĠĠĠĠĠĠĠĠĠĠĠĠĠĠĠĠĠĠĠĠĠĠĠĠĠĠĠĠ": 7612,
      "wards": 7613,
      "ĠCMAKE": 7614,
      "park": 7615,
      "FileName": 7616,
      "norm": 7617,
      "ctree": 7618,
      "lips": 7619,
      "ĠCA": 7620,
      "ê°": 7621,
      "aria": 7622,
      "Declar": 7623,
      "ĠPROC": 7624,
      "ĠEach": 7625,
      "extend": 7626,
      "ìĦ": 7627,
      "Google": 7628,
      "ĥ½": 7629,
      "COLOR": 7630,
      "Ok": 7631,
      "Ġincluded": 7632,
      "Ms": 7633,
      "Ġundef": 7634,
      "viders": 7635,
      "buttons": 7636,
      "Layers": 7637,
      "Ġcross": 7638,
      "ITH": 7639,
      ")[": 7640,
      "Optional": 7641,
      "ĠSend": 7642,
      "voice": 7643,
      "COMPILER": 7644,
      "Ġ%}": 7645,
      "Sequence": 7646,
      "wind": 7647,
      "Email": 7648,
      "Ġpur": 7649,
      "Ġsig": 7650,
      "Ġlik": 7651,
      "202": 7652,
      "`),": 7653,
      "Ġextra": 7654,
      "ermin": 7655,
      "Exists": 7656,
      "Ġsql": 7657,
      "Ġptr": 7658,
      "dia": 7659,
      "ĠInstall": 7660,
      "une": 7661,
      "Ġblocks": 7662,
      "vv": 7663,
      "ÙĲ": 7664,
      "istration": 7665,
      "hir": 7666,
      "sect": 7667,
      "ets": 7668,
      "notations": 7669,
      "}}.": 7670,
      "udit": 7671,
      "ĠHow": 7672,
      "40101": 7673,
      "news": 7674,
      "Ġ07": 7675,
      "verage": 7676,
      "fetch": 7677,
      "ern": 7678,
      "delta": 7679,
      "}'": 7680,
      "Ġwritten": 7681,
      "Ġprotocol": 7682,
      "Ġyear": 7683,
      "Ġaddr": 7684,
      "Ġdf": 7685,
      "Ġstroke": 7686,
      "(/": 7687,
      "loor": 7688,
      "verify": 7689,
      "Ġstill": 7690,
      "Ġvol": 7691,
      "aves": 7692,
      "Qk": 7693,
      "{(": 7694,
      "finite": 7695,
      "Ġwarn": 7696,
      "more": 7697,
      "Ġallowed": 7698,
      "'])": 7699,
      "ìł": 7700,
      "ĠModel": 7701,
      "virtual": 7702,
      "Pub": 7703,
      "SRC": 7704,
      "ceed": 7705,
      "lens": 7706,
      "robanteFactura": 7707,
      "lems": 7708,
      "Ġtimeout": 7709,
      "cessed": 7710,
      "ĠBE": 7711,
      "nr": 7712,
      "Ġfeatures": 7713,
      "plugins": 7714,
      "uf": 7715,
      "#!": 7716,
      "?(": 7717,
      "seg": 7718,
      "gnore": 7719,
      "ĠOTHER": 7720,
      "POSE": 7721,
      "290": 7722,
      "èĢ": 7723,
      "formed": 7724,
      "adius": 7725,
      "187": 7726,
      ":%": 7727,
      "ìŀ": 7728,
      "fly": 7729,
      "__(": 7730,
      "rot": 7731,
      "))*": 7732,
      "fit": 7733,
      "Fe": 7734,
      "áŀ": 7735,
      "protobuf": 7736,
      "196": 7737,
      "generator": 7738,
      "Registry": 7739,
      "Nt": 7740,
      "Ret": 7741,
      "abc": 7742,
      "poly": 7743,
      "Zero": 7744,
      "olang": 7745,
      "plots": 7746,
      "Ġvisible": 7747,
      "ISION": 7748,
      "abi": 7749,
      "Ġ46": 7750,
      "Ġloaded": 7751,
      "program": 7752,
      "Ġqueue": 7753,
      "REC": 7754,
      "Hand": 7755,
      "vol": 7756,
      "å¤§": 7757,
      "Exit": 7758,
      "ìĿ´": 7759,
      "ley": 7760,
      "notes": 7761,
      "66666667": 7762,
      "ĠTrait": 7763,
      "periment": 7764,
      "Ġdisabled": 7765,
      "equals": 7766,
      "fade": 7767,
      "dart": 7768,
      "DIRECT": 7769,
      "ä»¶": 7770,
      "138": 7771,
      "Generated": 7772,
      "`;": 7773,
      "scr": 7774,
      "ulated": 7775,
      "Ġxmm": 7776,
      "polation": 7777,
      "dig": 7778,
      "gmail": 7779,
      "*}": 7780,
      "Ġsubject": 7781,
      "browser": 7782,
      "Ġthrows": 7783,
      "Car": 7784,
      "COMPONENT": 7785,
      "NECT": 7786,
      "Ġcorresponding": 7787,
      "ĠSw": 7788,
      "Area": 7789,
      "Ġsem": 7790,
      "breadcr": 7791,
      "ĠAddress": 7792,
      "Dist": 7793,
      "340": 7794,
      "Ly": 7795,
      "Ġsepar": 7796,
      ".','": 7797,
      "Site": 7798,
      "à¤¨": 7799,
      "ĠÐº": 7800,
      "tachment": 7801,
      ")'": 7802,
      "ĠĠĠĠĠĠĠĠĠĠĠĠĠĠĠĠĠĠĠĠĠĠĠĠ": 7803,
      "Ġebx": 7804,
      "}}{": 7805,
      "libcxx": 7806,
      "Ġextension": 7807,
      "requency": 7808,
      "ĠĊĠĠĠĠĠĠĠĠĠĠĠ": 7809,
      "resize": 7810,
      "Ġoptim": 7811,
      "unknown": 7812,
      "vanced": 7813,
      "Ġ55": 7814,
      "distr": 7815,
      "164": 7816,
      "ĠParse": 7817,
      "Scan": 7818,
      "Ġensure": 7819,
      "units": 7820,
      "ÐµÑĤ": 7821,
      "aging": 7822,
      "_);": 7823,
      "mV": 7824,
      "multiple": 7825,
      "(::": 7826,
      "ĠÐ´": 7827,
      "280": 7828,
      "acle": 7829,
      "nw": 7830,
      "ĠScal": 7831,
      "866": 7832,
      "ĠÐ¾": 7833,
      "\">(</": 7834,
      "Ip": 7835,
      "HP": 7836,
      "sapUi": 7837,
      "lon": 7838,
      "005": 7839,
      "Ġlang": 7840,
      "aking": 7841,
      "Sd": 7842,
      "Ġcomment": 7843,
      "ĠInc": 7844,
      "outer": 7845,
      "208": 7846,
      "Constants": 7847,
      "route": 7848,
      "Ġvalidate": 7849,
      "concat": 7850,
      "Ġ1024": 7851,
      "Ġcommit": 7852,
      "ĠOverrides": 7853,
      "lineno": 7854,
      "AAA": 7855,
      "134": 7856,
      "áº¥": 7857,
      "CURRENT": 7858,
      "ĠMaybe": 7859,
      "icture": 7860,
      "Ġexternal": 7861,
      "kk": 7862,
      "ĠAuthor": 7863,
      "158": 7864,
      "xxxx": 7865,
      "Ġsed": 7866,
      "ç±": 7867,
      "ention": 7868,
      "ĠTarget": 7869,
      "Groups": 7870,
      "cccc": 7871,
      "aving": 7872,
      "allowed": 7873,
      "(`": 7874,
      "éĻ": 7875,
      "integr": 7876,
      "Ġhs": 7877,
      "nz": 7878,
      "eli": 7879,
      "ANGE": 7880,
      "driver": 7881,
      "Card": 7882,
      "sep": 7883,
      "toctree": 7884,
      "Conv": 7885,
      "Ġ_)": 7886,
      "CLASS": 7887,
      "CDATA": 7888,
      "StatusCode": 7889,
      "Acc": 7890,
      "fire": 7891,
      "Ġconcat": 7892,
      "154": 7893,
      "Library": 7894,
      "DQ": 7895,
      "uent": 7896,
      "Ġstored": 7897,
      "named": 7898,
      "Ġpartition": 7899,
      "Ġfolder": 7900,
      "ĠTYPE": 7901,
      "vehicle": 7902,
      "357": 7903,
      "Notification": 7904,
      "mZ": 7905,
      "Bus": 7906,
      "gui": 7907,
      "SHA": 7908,
      "Ġcomponents": 7909,
      "Ġgame": 7910,
      "gi": 7911,
      "ĠExp": 7912,
      "Validation": 7913,
      "Ġcb": 7914,
      "ROW": 7915,
      "ku": 7916,
      "Slot": 7917,
      "lict": 7918,
      "122": 7919,
      "_(": 7920,
      "Example": 7921,
      "torch": 7922,
      "ĊĉĉĉĉĉĉĉĊĉĉĉĉĉĉĉĊĉĉĉĉĉĉ": 7923,
      "Ġanimation": 7924,
      "ComprobanteFactura": 7925,
      "UBLIC": 7926,
      "preview": 7927,
      "COMM": 7928,
      "plor": 7929,
      "Ġaut": 7930,
      "phone": 7931,
      "Ġ------------------------------------------------": 7932,
      "tabular": 7933,
      "hx": 7934,
      "ĠHashMap": 7935,
      "uplicate": 7936,
      "annotation": 7937,
      "Ġ{},": 7938,
      "External": 7939,
      "åı¯": 7940,
      "mtype": 7941,
      "wM": 7942,
      "ĠSELECT": 7943,
      "wall": 7944,
      "openc": 7945,
      "kin": 7946,
      "jupyter": 7947,
      "demo": 7948,
      "ddd": 7949,
      "003": 7950,
      "Ġcomplete": 7951,
      "Amount": 7952,
      "155": 7953,
      "ĠNe": 7954,
      "Ġdistribution": 7955,
      "Ġgre": 7956,
      "distrib": 7957,
      ")::": 7958,
      "Ġns": 7959,
      "bro": 7960,
      "Ġtxt": 7961,
      "Ġ\";": 7962,
      "Ġbal": 7963,
      "ĠFound": 7964,
      "portfolio": 7965,
      "redit": 7966,
      "ĠEd": 7967,
      "ĠProcess": 7968,
      "{\\\"": 7969,
      "balena": 7970,
      "sin": 7971,
      "æŃ": 7972,
      "reader": 7973,
      "Snapshot": 7974,
      "hat": 7975,
      "Ġconsider": 7976,
      "wk": 7977,
      "words": 7978,
      "dC": 7979,
      "Ġ\"...": 7980,
      "ĠTemp": 7981,
      "COMMAND": 7982,
      "UA": 7983,
      "contents": 7984,
      "ament": 7985,
      "DROP": 7986,
      "Ġetc": 7987,
      "ĠItem": 7988,
      "Simon": 7989,
      "åİ": 7990,
      "Ġdst": 7991,
      "ASM": 7992,
      "itect": 7993,
      "LW": 7994,
      "SG": 7995,
      "ĠPosition": 7996,
      "Ġspecial": 7997,
      "SM": 7998,
      "LjUg": 7999,
      "ĠSeq": 8000,
      "ĠĠĠĠĠĠĠĠĠĠĠĠĠĠĠĠĠĠĠĠĠĠĠĠĠĠĠ": 8001,
      "flexbox": 8002,
      "Ġappear": 8003,
      "DoxyCompact": 8004,
      "correct": 8005,
      "ruby": 8006,
      "Idx": 8007,
      "sender": 8008,
      "VG": 8009,
      "BIT": 8010,
      "Zone": 8011,
      "ÙĴ": 8012,
      "jb": 8013,
      "ĠJava": 8014,
      "Ġlogger": 8015,
      "rcx": 8016,
      "west": 8017,
      "encoding": 8018,
      "clus": 8019,
      "176": 8020,
      "Ġchain": 8021,
      "START": 8022,
      "FALSE": 8023,
      "Ig": 8024,
      "Tools": 8025,
      "Pa": 8026,
      "antity": 8027,
      "expression": 8028,
      "Ã´": 8029,
      "Ġ<:": 8030,
      "andidate": 8031,
      "Ġlayout": 8032,
      "ĠCOPY": 8033,
      "hu": 8034,
      "CG": 8035,
      "Information": 8036,
      "SUCCESS": 8037,
      "ë¦": 8038,
      "ĠLDA": 8039,
      "Delegate": 8040,
      "Ġms": 8041,
      "precompile": 8042,
      "Verbose": 8043,
      "undef": 8044,
      "ĠSc": 8045,
      "rain": 8046,
      "awn": 8047,
      "LjV": 8048,
      "cha": 8049,
      "à¥ģ": 8050,
      "Ġutc": 8051,
      "æĪĲ": 8052,
      "::_": 8053,
      "Partition": 8054,
      "Ġmacro": 8055,
      "Skip": 8056,
      "666": 8057,
      "Should": 8058,
      "vide": 8059,
      "stage": 8060,
      "Ġ84": 8061,
      "ãģ®": 8062,
      "Own": 8063,
      "jce": 8064,
      "IMIT": 8065,
      "233": 8066,
      "mediate": 8067,
      "trl": 8068,
      "ĠCommand": 8069,
      "Ġgl": 8070,
      ",</": 8071,
      "Rest": 8072,
      "139": 8073,
      "Enter": 8074,
      "Ġda": 8075,
      "tk": 8076,
      "Ġhy": 8077,
      "MatrixBase": 8078,
      "ili": 8079,
      "[\\": 8080,
      "\">&#": 8081,
      "ĠMax": 8082,
      "ulator": 8083,
      "sizeof": 8084,
      "TEMP": 8085,
      "(:)": 8086,
      "»ãĤ": 8087,
      "Ġinstalled": 8088,
      "chor": 8089,
      "Ġpulumi": 8090,
      "panded": 8091,
      "country": 8092,
      "ĠCHARSET": 8093,
      "Ġscan": 8094,
      "ĠSto": 8095,
      "311": 8096,
      "ĠPython": 8097,
      "repo": 8098,
      "VR": 8099,
      "OLDER": 8100,
      "Ġproblem": 8101,
      "spectrum": 8102,
      "esome": 8103,
      "Ġremoved": 8104,
      "-$(": 8105,
      "izable": 8106,
      "è½": 8107,
      "ills": 8108,
      "Ð°ÑĤ": 8109,
      "projects": 8110,
      "ĠExpression": 8111,
      "Static": 8112,
      "ically": 8113,
      "envir": 8114,
      "methods": 8115,
      "Ã¢n": 8116,
      "'><": 8117,
      "Ġthose": 8118,
      "ĠCOMP": 8119,
      "subsubsection": 8120,
      "KIND": 8121,
      "PG": 8122,
      "Ġelem": 8123,
      "compiler": 8124,
      "CLI": 8125,
      "Virtual": 8126,
      "WT": 8127,
      "Ġ\\(": 8128,
      "ĠFind": 8129,
      "ä»¥": 8130,
      "Ġinstanceof": 8131,
      "MIT": 8132,
      "è¦": 8133,
      "Alias": 8134,
      "åĢ": 8135,
      "ĊĠĠĠĠĠĠĠĠĠĠĠĠĠĠĠĠĠĠĠĠĠĠĠĠĠĠĠĠĠĠĠĠĠ": 8136,
      "Ġexplicit": 8137,
      "cryption": 8138,
      "atypes": 8139,
      "nos": 8140,
      "arc": 8141,
      "Switch": 8142,
      "Just": 8143,
      "ĠNAME": 8144,
      "Ġallows": 8145,
      "Enumer": 8146,
      "accessor": 8147,
      "World": 8148,
      "Ġinset": 8149,
      "jquery": 8150,
      "ĠCustom": 8151,
      "visibility": 8152,
      "Replace": 8153,
      "Ġalpha": 8154,
      "chan": 8155,
      "mbed": 8156,
      ".{": 8157,
      "Ġcause": 8158,
      "='#": 8159,
      "jx": 8160,
      "ĊĊĠĠĠĠĠĠĠĠ": 8161,
      "ĠUN": 8162,
      "rdi": 8163,
      "Ġinner": 8164,
      "Timer": 8165,
      "wg": 8166,
      "ĠWITH": 8167,
      "constructor": 8168,
      "mn": 8169,
      "Ġretrie": 8170,
      "Pred": 8171,
      "Ġshared": 8172,
      "Before": 8173,
      "mega": 8174,
      "Rows": 8175,
      "è¡¨": 8176,
      "zure": 8177,
      "Include": 8178,
      "world": 8179,
      "actor": 8180,
      "Ġkernel": 8181,
      "(\"#": 8182,
      "supported": 8183,
      "Align": 8184,
      "TIM": 8185,
      "tection": 8186,
      "rg": 8187,
      "Implement": 8188,
      "Ð¾Ð»": 8189,
      "ĠHas": 8190,
      "Src": 8191,
      "è¡Į": 8192,
      "velopment": 8193,
      "COUNT": 8194,
      "Ġfinished": 8195,
      "á»įc": 8196,
      "Ġve": 8197,
      "Projects": 8198,
      "wi": 8199,
      "asc": 8200,
      "prob": 8201,
      "Ġsite": 8202,
      "ambda": 8203,
      "unions": 8204,
      "sur": 8205,
      "Au": 8206,
      "ially": 8207,
      "jar": 8208,
      "179": 8209,
      "åĪĨ": 8210,
      "209": 8211,
      "online": 8212,
      "regex": 8213,
      "Ġusage": 8214,
      "uber": 8215,
      "YS": 8216,
      "hem": 8217,
      "ately": 8218,
      "accord": 8219,
      "Autom": 8220,
      "vh": 8221,
      "iform": 8222,
      "noDB": 8223,
      "254": 8224,
      "MAG": 8225,
      "ĠLanguage": 8226,
      "Ġoutline": 8227,
      "Ġparsed": 8228,
      "Æ¡": 8229,
      "ĠResponse": 8230,
      "Ġaxis": 8231,
      "structure": 8232,
      "avai": 8233,
      "Ġhead": 8234,
      "ACC": 8235,
      "Ġmd": 8236,
      "notification": 8237,
      "locale": 8238,
      "ragma": 8239,
      "opencv": 8240,
      "Fh": 8241,
      "Ġ'\"": 8242,
      "159": 8243,
      "LA": 8244,
      "Inst": 8245,
      "Contact": 8246,
      "VALID": 8247,
      "aret": 8248,
      "ordinate": 8249,
      "cheme": 8250,
      "Chi": 8251,
      "Ġcounter": 8252,
      "Ġsi": 8253,
      "Try": 8254,
      "SPHINXOPTS": 8255,
      "Ġscroll": 8256,
      "XR": 8257,
      "å®ļ": 8258,
      "Ġ43": 8259,
      "inset": 8260,
      "getElement": 8261,
      "CONT": 8262,
      "rase": 8263,
      "lying": 8264,
      "Initialize": 8265,
      "260": 8266,
      "ĠQuery": 8267,
      "Ġyet": 8268,
      "384": 8269,
      "CRIPTION": 8270,
      "343": 8271,
      "Screen": 8272,
      "iling": 8273,
      "à¤ķ": 8274,
      "ĠDocument": 8275,
      "Ve": 8276,
      "Ġincluding": 8277,
      "ooter": 8278,
      "Ġtimes": 8279,
      "BI": 8280,
      "mg": 8281,
      "Ġdirection": 8282,
      "rules": 8283,
      "Light": 8284,
      "Fatal": 8285,
      "^\\": 8286,
      "Ġ'_": 8287,
      ",',": 8288,
      "->_": 8289,
      "ĠAuto": 8290,
      "erialize": 8291,
      "Ġdisable": 8292,
      "Ġ\"ï": 8293,
      "Ġdot": 8294,
      "Pod": 8295,
      "Short": 8296,
      "ĠPartial": 8297,
      "ancy": 8298,
      "Ġcompiler": 8299,
      "fonts": 8300,
      "Ln": 8301,
      "ttfamily": 8302,
      "MAN": 8303,
      "feedback": 8304,
      "blocks": 8305,
      "Ð¹": 8306,
      "ĠBound": 8307,
      "Ġplay": 8308,
      "ĠHttp": 8309,
      "Ġbranch": 8310,
      "sphinx": 8311,
      "BG": 8312,
      "169": 8313,
      "Ġsignature": 8314,
      "purple": 8315,
      "Ġ'./": 8316,
      "sun": 8317,
      "Ġscala": 8318,
      "catch": 8319,
      "rpc": 8320,
      "ara": 8321,
      "Ġnamed": 8322,
      "ĠAction": 8323,
      "áºŃ": 8324,
      "mkdir": 8325,
      "262": 8326,
      "Special": 8327,
      "vg": 8328,
      "CType": 8329,
      "bold": 8330,
      "ĠSTR": 8331,
      "includegraphics": 8332,
      "»ãĤĢ": 8333,
      "ãģ»ãĤĢ": 8334,
      "bine": 8335,
      "extension": 8336,
      "MenuItem": 8337,
      "Ġll": 8338,
      "177": 8339,
      "ĊĠĠĠĠĠĠĊĠĠĠĠĠĠĠ": 8340,
      "dll": 8341,
      "inout": 8342,
      "ism": 8343,
      "Metric": 8344,
      "Multip": 8345,
      "_${": 8346,
      "Pi": 8347,
      "cz": 8348,
      "oy": 8349,
      "Ġds": 8350,
      "Ġconstruct": 8351,
      "}})": 8352,
      "VisualBasic": 8353,
      "lers": 8354,
      "typedef": 8355,
      "disk": 8356,
      "365": 8357,
      "validated": 8358,
      "ĠGeneral": 8359,
      "Ġforce": 8360,
      "mach": 8361,
      "desk": 8362,
      "Ġpartial": 8363,
      "BINARY": 8364,
      "Ġentries": 8365,
      "wb": 8366,
      "ĠLine": 8367,
      "...\"": 8368,
      "between": 8369,
      "two": 8370,
      "twitter": 8371,
      "Ġ\"[": 8372,
      "Ġ$<": 8373,
      "314": 8374,
      "vr": 8375,
      "Ġfs": 8376,
      "Ġcurrently": 8377,
      "Ġ*,": 8378,
      "].[": 8379,
      "urphy": 8380,
      "ERS": 8381,
      "deprecated": 8382,
      "power": 8383,
      "SUFFIX": 8384,
      "1456217": 8385,
      "305": 8386,
      "BackColor": 8387,
      "Place": 8388,
      "ĠDWORD": 8389,
      "iph": 8390,
      "compat": 8391,
      "Ġbigint": 8392,
      "Wallet": 8393,
      "Ġbest": 8394,
      "perl": 8395,
      "Shared": 8396,
      "guide": 8397,
      "ivory": 8398,
      "Ġdig": 8399,
      "UG": 8400,
      "history": 8401,
      "NotNull": 8402,
      "Ġpeer": 8403,
      "lake": 8404,
      "ĠAss": 8405,
      "ĠDep": 8406,
      "PACKAGE": 8407,
      "Ġautomatically": 8408,
      "TESS": 8409,
      "/%": 8410,
      "Ġ128": 8411,
      "loss": 8412,
      "SSB": 8413,
      "about": 8414,
      "uda": 8415,
      "ipher": 8416,
      "Ġcalls": 8417,
      "ĠAccess": 8418,
      "Ġtargets": 8419,
      "Ġsummary": 8420,
      "gan": 8421,
      "intent": 8422,
      "Year": 8423,
      "drag": 8424,
      "Ġpermission": 8425,
      "Ġdesign": 8426,
      "Ġ/=": 8427,
      "=\"../../../../../../": 8428,
      "asp": 8429,
      "çº": 8430,
      "Ġcast": 8431,
      "ventory": 8432,
      "ĠJS": 8433,
      "Bad": 8434,
      "ĊĊĠĠĠĠ": 8435,
      "Ð¾ÑĢ": 8436,
      "Ġ$($": 8437,
      "symfony": 8438,
      "ĠVerify": 8439,
      "ZG": 8440,
      "aled": 8441,
      "accent": 8442,
      "Ġcompilation": 8443,
      "ĠExample": 8444,
      "steps": 8445,
      "addresses": 8446,
      "Remote": 8447,
      "agger": 8448,
      "OPEN": 8449,
      "ĠFormat": 8450,
      "resolve": 8451,
      "ENCE": 8452,
      "Ġsimilar": 8453,
      "edu": 8454,
      "]{\\": 8455,
      "\":[": 8456,
      "hn": 8457,
      "unused": 8458,
      "pending": 8459,
      "canvas": 8460,
      "ensity": 8461,
      "EXPORT": 8462,
      "RESULT": 8463,
      "Cho": 8464,
      "sat": 8465,
      "Ġwarning": 8466,
      "Ġcref": 8467,
      "assertEqual": 8468,
      "Commit": 8469,
      "Ġtermin": 8470,
      "TESSSB": 8471,
      "Ġpod": 8472,
      "LABEL": 8473,
      "JMurphy": 8474,
      "SimonJMurphy": 8475,
      "east": 8476,
      "abilities": 8477,
      "Dynamic": 8478,
      "#!/": 8479,
      "Cancel": 8480,
      "xxl": 8481,
      "Ġgt": 8482,
      "Ġund": 8483,
      ")')": 8484,
      "Sample": 8485,
      "thead": 8486,
      "åĴ": 8487,
      "Ġcubic": 8488,
      "Complete": 8489,
      "PTR": 8490,
      "Ġremote": 8491,
      "-(": 8492,
      "vw": 8493,
      "ante": 8494,
      "Ġchunk": 8495,
      "*{": 8496,
      "Ġmaster": 8497,
      "Ġpara": 8498,
      "className": 8499,
      "Random": 8500,
      "Ġproxy": 8501,
      "ìĹ": 8502,
      "ĠMIT": 8503,
      "Ġorigin": 8504,
      "Ġil": 8505,
      ",(": 8506,
      "ĊĉĉĉĊĉĉ": 8507,
      "Loader": 8508,
      "VW": 8509,
      "Ġpool": 8510,
      "Rules": 8511,
      "Ġterm": 8512,
      "ĠGL": 8513,
      "Ġdocker": 8514,
      "ĠAbstract": 8515,
      "',--": 8516,
      "Ġdat": 8517,
      "223": 8518,
      ":$": 8519,
      "Ġ'<": 8520,
      "Ġnumbers": 8521,
      "tls": 8522,
      "verter": 8523,
      "194": 8524,
      "aaaa": 8525,
      "etime": 8526,
      "Adapter": 8527,
      "isc": 8528,
      "Throw": 8529,
      "objects": 8530,
      "Also": 8531,
      "Children": 8532,
      "ofont": 8533,
      "Ð»Ð¸": 8534,
      "Ġcommands": 8535,
      "ĠJVS": 8536,
      "}{,": 8537,
      "Ġround": 8538,
      "separator": 8539,
      "initialize": 8540,
      "accordion": 8541,
      "ora": 8542,
      "indexOf": 8543,
      "ç±»": 8544,
      "248": 8545,
      "654": 8546,
      "mmutable": 8547,
      "ĠDef": 8548,
      "general": 8549,
      "789": 8550,
      "157": 8551,
      "Ġless": 8552,
      "149": 8553,
      "Ġnote": 8554,
      "èĩº": 8555,
      "Ġdid": 8556,
      "ifications": 8557,
      "ĠINDEX": 8558,
      "ÅĤ": 8559,
      "Ġprocedure": 8560,
      "Apis": 8561,
      "Ġallocate": 8562,
      ")^": 8563,
      "bm": 8564,
      "orange": 8565,
      "boBox": 8566,
      "Ġsegment": 8567,
      "FLO": 8568,
      "Video": 8569,
      "Ġprogress": 8570,
      "Ġdx": 8571,
      "duced": 8572,
      "386": 8573,
      "FIN": 8574,
      "serde": 8575,
      "Owner": 8576,
      "ceptions": 8577,
      "RS": 8578,
      "=\"../../../../../": 8579,
      "ĠTag": 8580,
      "ysql": 8581,
      "stand": 8582,
      "cls": 8583,
      "ctl": 8584,
      "Ġ\"_": 8585,
      "Propi": 8586,
      "HC": 8587,
      "topic": 8588,
      "itype": 8589,
      "EA": 8590,
      "?\"": 8591,
      "incip": 8592,
      "sarx": 8593,
      "zf": 8594,
      "oment": 8595,
      "ĠTok": 8596,
      "186": 8597,
      "fluid": 8598,
      "Ñĸ": 8599,
      "PYTHON": 8600,
      "Ġmkdir": 8601,
      "ĠclassName": 8602,
      "bucket": 8603,
      "777": 8604,
      "_[": 8605,
      "ĊĠĠĠĠĠĠĠĠĠĠĠĠĠĠĠĠĊĠĠĠĠĠĠĠĠĠĠĠĠĠĠĠĠ": 8606,
      "ĠBox": 8607,
      "113": 8608,
      "Ġxm": 8609,
      "Annotation": 8610,
      "apps": 8611,
      "Ġ=========": 8612,
      "Ġuseful": 8613,
      "Ġqw": 8614,
      "Ġcurl": 8615,
      "icky": 8616,
      "branch": 8617,
      "Ġinitialize": 8618,
      "tre": 8619,
      "optim": 8620,
      "OBJECT": 8621,
      "ito": 8622,
      "ĠPARAMETER": 8623,
      "unce": 8624,
      "Ġpa": 8625,
      "ĠThese": 8626,
      "csv": 8627,
      "STEM": 8628,
      "grad": 8629,
      "Ġfetch": 8630,
      "DEST": 8631,
      "ye": 8632,
      "uras": 8633,
      "Ġcollect": 8634,
      "dn": 8635,
      "ĊĠĠĠĠĠĠĊĠĠĠĠĠ": 8636,
      "Destination": 8637,
      "146": 8638,
      "NOP": 8639,
      "Ġlos": 8640,
      "Ġcmake": 8641,
      "ĠSign": 8642,
      "ĠOther": 8643,
      "178": 8644,
      "lint": 8645,
      "__,": 8646,
      "fm": 8647,
      "spin": 8648,
      "wc": 8649,
      "CNT": 8650,
      "231": 8651,
      "pict": 8652,
      "ĠÑĤ": 8653,
      "ĠDirect": 8654,
      "184": 8655,
      "Ġarr": 8656,
      "Ġcla": 8657,
      "çĲ": 8658,
      "transport": 8659,
      "Ġalgorithm": 8660,
      "156": 8661,
      "Ġremain": 8662,
      "Ġprofile": 8663,
      "itespace": 8664,
      "Ġpartic": 8665,
      "âĶĤ": 8666,
      "eded": 8667,
      "crease": 8668,
      "Ġrequires": 8669,
      "RPC": 8670,
      "cel": 8671,
      "cursive": 8672,
      "isting": 8673,
      "tm": 8674,
      "golang": 8675,
      "nm": 8676,
      "Clone": 8677,
      "FX": 8678,
      "igure": 8679,
      "endpoint": 8680,
      "Ġlinks": 8681,
      "Ġpor": 8682,
      "\":{\"": 8683,
      "seed": 8684,
      "éĿ": 8685,
      "404": 8686,
      "Columns": 8687,
      "obs": 8688,
      "uation": 8689,
      "ĠClient": 8690,
      "LEAN": 8691,
      "ENCES": 8692,
      "Builtin": 8693,
      "ĠOrder": 8694,
      "TRAN": 8695,
      "ĠĠĠĠĠĠĠĠĠĠĠĠĠĠĠĠĠĠĠĠĠĠĠĠĠĠ": 8696,
      "80105": 8697,
      "elements": 8698,
      "Ġfactor": 8699,
      "à¤¶": 8700,
      "Diff": 8701,
      "unct": 8702,
      "Ġlarge": 8703,
      "Ġcontrib": 8704,
      "555": 8705,
      "Ġ\"--": 8706,
      "pgf": 8707,
      "Ġinstances": 8708,
      "LK": 8709,
      "Caption": 8710,
      "ì§": 8711,
      "lette": 8712,
      "scripts": 8713,
      "OUTPUT": 8714,
      "Delta": 8715,
      "lr": 8716,
      "Ñİ": 8717,
      "326": 8718,
      "æį®": 8719,
      "forms": 8720,
      "clock": 8721,
      "ĠĠĠĠĠĠĠĠĠĠĠĠĠĠĠĠĠĠĠĠĠĠĠĠĠ": 8722,
      "Ġcar": 8723,
      "utdown": 8724,
      "Fix": 8725,
      "Ġpan": 8726,
      "ĠDA": 8727,
      "olicies": 8728,
      "Ġdirectly": 8729,
      "RG": 8730,
      "Ġcontents": 8731,
      "Ġextract": 8732,
      "Ġyield": 8733,
      "llvm": 8734,
      ":**": 8735,
      "253": 8736,
      "alyt": 8737,
      "(#": 8738,
      "235": 8739,
      "AVX": 8740,
      "ĠHREF": 8741,
      "Theme": 8742,
      "ĉĉĉĉĉ": 8743,
      "Ġfailure": 8744,
      "pow": 8745,
      "stride": 8746,
      "erature": 8747,
      "ĊĊĠĠĠĠĠĠĠĠĠĠĠĠĠĠĠĠĠĠĠĠĠĠĠ": 8748,
      "lider": 8749,
      "pred": 8750,
      "Ġreason": 8751,
      "ama": 8752,
      "Ġpaths": 8753,
      "||(": 8754,
      "LEVEL": 8755,
      "213": 8756,
      "Backend": 8757,
      "Describe": 8758,
      "\"===": 8759,
      "AAAAAA": 8760,
      "LES": 8761,
      "IFT": 8762,
      "QT": 8763,
      "Ġdict": 8764,
      "NP": 8765,
      "subject": 8766,
      "Checked": 8767,
      "NODE": 8768,
      "examples": 8769,
      "Ġ'$(": 8770,
      "Ġbg": 8771,
      "cod": 8772,
      "ĠFILE": 8773,
      "ĠNamespace": 8774,
      "lookup": 8775,
      "bon": 8776,
      "Ġ).": 8777,
      "sumer": 8778,
      "Models": 8779,
      "Ġinside": 8780,
      "Ġhapp": 8781,
      "obile": 8782,
      "189": 8783,
      "745": 8784,
      "EXEC": 8785,
      "Fixed": 8786,
      "Finca": 8787,
      "ĠXML": 8788,
      "Ġ{}\",": 8789,
      "servable": 8790,
      "typeNameLink": 8791,
      "gle": 8792,
      "deep": 8793,
      "uting": 8794,
      "AgQ": 8795,
      "arison": 8796,
      "ĠPO": 8797,
      "msgs": 8798,
      "ĠNumFinca": 8799,
      "aff": 8800,
      "Ġmaterial": 8801,
      "FONT": 8802,
      "CONST": 8803,
      "ĠIsNot": 8804,
      "UDA": 8805,
      "Detail": 8806,
      ",\\\"": 8807,
      "alog": 8808,
      "leveldb": 8809,
      "hp": 8810,
      "ĠIE": 8811,
      "Hyper": 8812,
      "Ġsyntax": 8813,
      "ĠSchema": 8814,
      "Secret": 8815,
      "igration": 8816,
      "erved": 8817,
      "Ġseconds": 8818,
      "remote": 8819,
      "Ġrepresentation": 8820,
      "ĠPATH": 8821,
      "YP": 8822,
      "Ġ83": 8823,
      "ATURE": 8824,
      "Ġ×": 8825,
      "UID": 8826,
      "VID": 8827,
      "ball": 8828,
      "members": 8829,
      "compute": 8830,
      "Ġendpoint": 8831,
      "Ġjav": 8832,
      "matches": 8833,
      "ajax": 8834,
      "Download": 8835,
      "argument": 8836,
      "accept": 8837,
      "aN": 8838,
      "Ġbad": 8839,
      "+(": 8840,
      "activity": 8841,
      "mas": 8842,
      "Ġcs": 8843,
      "Ġdw": 8844,
      "%{": 8845,
      "Center": 8846,
      "ARM": 8847,
      "212": 8848,
      "Ġinterval": 8849,
      "350": 8850,
      "ifetime": 8851,
      "Ġverify": 8852,
      "hint": 8853,
      "é¡": 8854,
      "ĠJson": 8855,
      "when": 8856,
      "UTE": 8857,
      "MAC": 8858,
      "pref": 8859,
      "yarn": 8860,
      "Android": 8861,
      "Constructor": 8862,
      "Ġcompat": 8863,
      "ancellationToken": 8864,
      "Git": 8865,
      "PK": 8866,
      "Packet": 8867,
      "original": 8868,
      "allery": 8869,
      "Ġreceived": 8870,
      "dX": 8871,
      "Ġcases": 8872,
      "960": 8873,
      "enumerate": 8874,
      "ances": 8875,
      "ĠREFER": 8876,
      "ĠRequire": 8877,
      "Ġsolution": 8878,
      "}->{": 8879,
      "ĊĉĠĠĠĠĠ": 8880,
      "221": 8881,
      "Ġir": 8882,
      "Ġengine": 8883,
      "Ġhl": 8884,
      "theta": 8885,
      "æĮ": 8886,
      "006": 8887,
      "sem": 8888,
      "Ġchildren": 8889,
      "lica": 8890,
      "ract": 8891,
      "ccc": 8892,
      "033": 8893,
      "zt": 8894,
      "228": 8895,
      "Ġcategory": 8896,
      "Ġroute": 8897,
      "Timestamp": 8898,
      "ĠConsole": 8899,
      "å¯¹": 8900,
      "eliho": 8901,
      "Tile": 8902,
      "district": 8903,
      "Methods": 8904,
      "getElementById": 8905,
      "ĠPoint": 8906,
      "ĠLIMIT": 8907,
      "('/": 8908,
      "{%": 8909,
      "EventArgs": 8910,
      "ĠÐ¼": 8911,
      "Ġpack": 8912,
      "agraph": 8913,
      "324": 8914,
      "ĠUs": 8915,
      "ĊĠĠĠĠĠĠĠĠĠĠĠĠĠĠĠĠĠĠĠĠĠĠĠĠĠĠĠĠĠĠĠĠĠĠĠĠĠĠĠĠĠĠĠĠĠĠĠĠĠĠĠĠĠĠĠĠĠĠĠĠĠĠĠĠĠĠĠ": 8916,
      "fun": 8917,
      "gres": 8918,
      "191": 8919,
      "CHO": 8920,
      "Ġinstruction": 8921,
      "functions": 8922,
      "Ġ{$": 8923,
      "Ġdev": 8924,
      "dup": 8925,
      "InnoDB": 8926,
      "ople": 8927,
      "gc": 8928,
      "Ġdan": 8929,
      "party": 8930,
      "ĠINTER": 8931,
      "Fun": 8932,
      "ĠĊĠĠĠĠĠ": 8933,
      "Ġimages": 8934,
      "åĴĮ": 8935,
      "Ġcx": 8936,
      "apple": 8937,
      "Credential": 8938,
      "GA": 8939,
      "Permission": 8940,
      "Reset": 8941,
      "Ġ47": 8942,
      "Ġarea": 8943,
      "netes": 8944,
      "cached": 8945,
      "Î±": 8946,
      "Ùı": 8947,
      "peer": 8948,
      "\">,</": 8949,
      "321": 8950,
      "men": 8951,
      "sup": 8952,
      "Ġselection": 8953,
      "Created": 8954,
      "APPEND": 8955,
      "Ġ72": 8956,
      "ĠMOI": 8957,
      "question": 8958,
      "FORMAT": 8959,
      "BF": 8960,
      "Ġ'@": 8961,
      "Bucket": 8962,
      "ubernetes": 8963,
      "PA": 8964,
      "364": 8965,
      "390": 8966,
      "Ġcert": 8967,
      "ĠTy": 8968,
      "blockquote": 8969,
      "mean": 8970,
      "Ġmatches": 8971,
      "Highlight": 8972,
      "èĩºåĮĹ": 8973,
      "325": 8974,
      "ĠThere": 8975,
      "fromList": 8976,
      "modifier": 8977,
      "áº¿": 8978,
      "ĠRel": 8979,
      "phi": 8980,
      "Ġ[];": 8981,
      "derr": 8982,
      "forward": 8983,
      "ĠImport": 8984,
      "Ġpacket": 8985,
      "Cg": 8986,
      "304": 8987,
      "enchmark": 8988,
      "ĠPART": 8989,
      "mesh": 8990,
      "LAY": 8991,
      "ĊĊĊĠ": 8992,
      "Ġperson": 8993,
      "Master": 8994,
      "entries": 8995,
      "227": 8996,
      "238": 8997,
      "CU": 8998,
      "ĠTHIS": 8999,
      "Ġrepeat": 9000,
      "ĠLabel": 9001,
      "sources": 9002,
      "Ġelsif": 9003,
      "Ġeval": 9004,
      "Ġrate": 9005,
      "ango": 9006,
      "áº£": 9007,
      "Ġemail": 9008,
      "ilent": 9009,
      "inyin": 9010,
      "Elem": 9011,
      "=\"$": 9012,
      "Integr": 9013,
      "Now": 9014,
      "Ġdataset": 9015,
      ">',": 9016,
      "Ġdriver": 9017,
      "pective": 9018,
      "Ġelif": 9019,
      "]</": 9020,
      "ĠReference": 9021,
      "Future": 9022,
      "MY": 9023,
      "Ø¨": 9024,
      "ĠDict": 9025,
      "validation": 9026,
      "Ġed": 9027,
      "eries": 9028,
      "ĠOp": 9029,
      "322": 9030,
      "Ġ'';": 9031,
      "typename": 9032,
      "ĠviewBox": 9033,
      "GRO": 9034,
      "ĠChar": 9035,
      "Ġoccur": 9036,
      "extract": 9037,
      "Ġminimum": 9038,
      "uggestion": 9039,
      "è·¯": 9040,
      "8080": 9041,
      "ToolStrip": 9042,
      "ymm": 9043,
      "prom": 9044,
      "Prelude": 9045,
      "Ġoperations": 9046,
      "secret": 9047,
      "LEX": 9048,
      "los": 9049,
      "147": 9050,
      "Ġseq": 9051,
      "ç®": 9052,
      "Chart": 9053,
      "å»": 9054,
      "ife": 9055,
      "allocator": 9056,
      "Driver": 9057,
      "Ġinputs": 9058,
      "TM": 9059,
      "Ġcounts": 9060,
      "pinyin": 9061,
      "MEM": 9062,
      "Ġissue": 9063,
      "Tri": 9064,
      "MSG": 9065,
      "uman": 9066,
      "*=\"": 9067,
      "must": 9068,
      "FilePath": 9069,
      "Ġmachine": 9070,
      "444": 9071,
      "capnp": 9072,
      "152": 9073,
      "Lat": 9074,
      "ĠSu": 9075,
      "hostname": 9076,
      "698": 9077,
      "Depth": 9078,
      "GetType": 9079,
      "helpers": 9080,
      "HK": 9081,
      "person": 9082,
      "Ġnowrap": 9083,
      "Ġts": 9084,
      "Play": 9085,
      "Ã¬": 9086,
      "čĊĠĠĠĠĠĠĠĠĠĠĠĠĠĠĠĠĠĠĠĠĠĠĠĠĠĠĠ": 9087,
      "FULL": 9088,
      "IONAL": 9089,
      "ĠDateTime": 9090,
      "Sys": 9091,
      "Ġ(%):": 9092,
      "stretch": 9093,
      "ography": 9094,
      "çĤ": 9095,
      "Alg": 9096,
      "continue": 9097,
      "Person": 9098,
      "[\\\"": 9099,
      "Ġplot": 9100,
      ".\");": 9101,
      "Ġsender": 9102,
      "ĠOS": 9103,
      "valuation": 9104,
      "curl": 9105,
      "achable": 9106,
      "ASSERT": 9107,
      "spar": 9108,
      "SUP": 9109,
      "Ġast": 9110,
      "usage": 9111,
      "Stmt": 9112,
      "relation": 9113,
      "Ġperformance": 9114,
      "PD": 9115,
      "`](": 9116,
      "308": 9117,
      ")],": 9118,
      "Ġ-&": 9119,
      ")|": 9120,
      "lation": 9121,
      "Vertex": 9122,
      "è¦ģ": 9123,
      "Objects": 9124,
      "pivot": 9125,
      "NF": 9126,
      "é¢": 9127,
      "General": 9128,
      "Lf": 9129,
      "ĠPo": 9130,
      "ĠREFERENCES": 9131,
      "(<": 9132,
      "Ġdatetime": 9133,
      "\"+": 9134,
      "Ġcmp": 9135,
      "Ġev": 9136,
      "iAg": 9137,
      "Encoding": 9138,
      "ĠMOV": 9139,
      "Ord": 9140,
      "æĸ¹": 9141,
      "ek": 9142,
      "mous": 9143,
      "004": 9144,
      "Ġ\"'": 9145,
      "ĠInstance": 9146,
      "ĠProtected": 9147,
      "ootstrap": 9148,
      "ĠOP": 9149,
      "ê¸": 9150,
      "erce": 9151,
      "Ġsupp": 9152,
      "URPOSE": 9153,
      "éĽ": 9154,
      "Ġmade": 9155,
      "SPHINXBUILD": 9156,
      "eros": 9157,
      "DIS": 9158,
      "allocate": 9159,
      "ÑĪ": 9160,
      "Ġdue": 9161,
      "Cha": 9162,
      "ali": 9163,
      "Ġ=====": 9164,
      "amd": 9165,
      "Setting": 9166,
      "Ġprimary": 9167,
      "Ġ:-": 9168,
      "samp": 9169,
      "Ġfuture": 9170,
      "Ġ|=": 9171,
      "Declaration": 9172,
      "ãģ»ãĤĢãģ»ãĤĢ": 9173,
      "/${": 9174,
      "Ð±": 9175,
      "Ġmm": 9176,
      "Ang": 9177,
      "ìļ": 9178,
      "ĠĠĠĠĠĠĠĠĠĠĠĠĠĠĠĠĠĠĠĠĠĠĠĠĠĠĠĠ": 9179,
      "=.": 9180,
      "Invoke": 9181,
      "ãĥ¼": 9182,
      "dif": 9183,
      "eu": 9184,
      "peated": 9185,
      "asset": 9186,
      ">$": 9187,
      "}-": 9188,
      "ault": 9189,
      "gems": 9190,
      "Bottom": 9191,
      "saved": 9192,
      "Ġvb": 9193,
      "reduce": 9194,
      "Ġtp": 9195,
      "333333": 9196,
      "([]": 9197,
      "'>[": 9198,
      "fk": 9199,
      "CheckBox": 9200,
      "alf": 9201,
      "Fu": 9202,
      "Ġpol": 9203,
      "Ġtile": 9204,
      "Ġnecessary": 9205,
      "çĲĨ": 9206,
      "Copyright": 9207,
      "Asset": 9208,
      "NSION": 9209,
      "seen": 9210,
      "312": 9211,
      "RESS": 9212,
      "Lm": 9213,
      "Ġblack": 9214,
      "čĊčĊĉ": 9215,
      "æĸ°": 9216,
      "character": 9217,
      "LIED": 9218,
      "Ġmodules": 9219,
      "aW": 9220,
      "utter": 9221,
      "å¿": 9222,
      "MPI": 9223,
      "onymous": 9224,
      "Lines": 9225,
      "Datatypes": 9226,
      "Ġ!(": 9227,
      "breadcrumb": 9228,
      "Ġrect": 9229,
      "submenu": 9230,
      "Disk": 9231,
      "uest": 9232,
      "shop": 9233,
      "{}\\": 9234,
      "ĠBayes": 9235,
      "LOBAL": 9236,
      "NONE": 9237,
      "wwv": 9238,
      "...</": 9239,
      "153": 9240,
      "Primary": 9241,
      "/,": 9242,
      "dynamic": 9243,
      "zoom": 9244,
      "ĠInitialized": 9245,
      "ĠĊĠĠĠĠ": 9246,
      "memberNameLink": 9247,
      "aside": 9248,
      "omial": 9249,
      "cancel": 9250,
      "Python": 9251,
      "80106": 9252,
      "ving": 9253,
      "Ġ(((": 9254,
      "Ġattemp": 9255,
      "á»Ļ": 9256,
      "..'": 9257,
      "construct": 9258,
      "239": 9259,
      "Ġpair": 9260,
      "\"])": 9261,
      "ĠÂ": 9262,
      "ĠLL": 9263,
      "Counter": 9264,
      "299": 9265,
      "BLOCK": 9266,
      "80104": 9267,
      "primitive": 9268,
      "HI": 9269,
      "Assign": 9270,
      "tu": 9271,
      "eee": 9272,
      "337": 9273,
      "¦Ĥ": 9274,
      "Ð³": 9275,
      "ardware": 9276,
      "0001": 9277,
      "lk": 9278,
      "Ġui": 9279,
      "jca": 9280,
      "ĠLink": 9281,
      "Ġmodified": 9282,
      "Ġrhs": 9283,
      "Ġcomplex": 9284,
      "Ġnumer": 9285,
      "Ġroutine": 9286,
      "NotFound": 9287,
      "hk": 9288,
      "arding": 9289,
      "atomic": 9290,
      "Pack": 9291,
      "lax": 9292,
      "tran": 9293,
      "products": 9294,
      "sans": 9295,
      "()()()()": 9296,
      "(..": 9297,
      "Ġcr": 9298,
      "Press": 9299,
      "Ġ(#": 9300,
      "Nd": 9301,
      "Ġweight": 9302,
      "dimension": 9303,
      "Ġ\"../": 9304,
      "har": 9305,
      "anches": 9306,
      "ĠArguments": 9307,
      "ICAgICAg": 9308,
      "Ġsit": 9309,
      "ants": 9310,
      "grey": 9311,
      "energy": 9312,
      "Ġtesting": 9313,
      ">[": 9314,
      "Ġred": 9315,
      "ĠCurrent": 9316,
      "anging": 9317,
      "ÑĢÐ°Ð": 9318,
      "ĠAndAlso": 9319,
      "QB": 9320,
      "snippe": 9321,
      "inherited": 9322,
      "Ni": 9323,
      "Ġexact": 9324,
      "ç¤": 9325,
      "ĠSec": 9326,
      "ĠLib": 9327,
      ");-": 9328,
      "Ident": 9329,
      "payment": 9330,
      "pic": 9331,
      "plain": 9332,
      "icago": 9333,
      "Ġlon": 9334,
      "Ġtrace": 9335,
      "Ġgoogle": 9336,
      "]\"": 9337,
      "Ġtrigger": 9338,
      "Ġdynamic": 9339,
      "288": 9340,
      "numeric": 9341,
      "sent": 9342,
      "olo": 9343,
      "ULAR": 9344,
      "ĠParameters": 9345,
      "jcajce": 9346,
      "ners": 9347,
      "ĠFoundation": 9348,
      "Ġbc": 9349,
      "Ġ-=": 9350,
      "Ġmag": 9351,
      "401": 9352,
      "When": 9353,
      "Ġbold": 9354,
      "ĠCommon": 9355,
      "ĠParameter": 9356,
      "Unicode": 9357,
      "ĠErrStat": 9358,
      "<$": 9359,
      "Ġpayload": 9360,
      "ä¾": 9361,
      "eto": 9362,
      "Ġhold": 9363,
      "based": 9364,
      "tty": 9365,
      "èĩºåĮĹå¸Ĥ": 9366,
      "ĠLD": 9367,
      "OID": 9368,
      "rong": 9369,
      "Ġpure": 9370,
      "}/${": 9371,
      "han": 9372,
      "tlement": 9373,
      "Period": 9374,
      "ĠPost": 9375,
      "pped": 9376,
      "345": 9377,
      "äºĨ": 9378,
      "Ġmb": 9379,
      "Ċĉĉĉĉĉĉĉĉĉĉĉ": 9380,
      "ç«": 9381,
      "orary": 9382,
      "Ġrec": 9383,
      "Conversion": 9384,
      "172": 9385,
      "Ġ'.": 9386,
      "References": 9387,
      "ĠGraph": 9388,
      "malink": 9389,
      "Ġreferences": 9390,
      "Ġnorm": 9391,
      "Html": 9392,
      "Ġlogical": 9393,
      "FN": 9394,
      "segment": 9395,
      "Ġrest": 9396,
      "cour": 9397,
      "ĠFORE": 9398,
      "Ġindent": 9399,
      "***": 9400,
      "ĠApplication": 9401,
      "AreEqual": 9402,
      "gap": 9403,
      "âķĲ": 9404,
      "lipsis": 9405,
      "available": 9406,
      "ĠIter": 9407,
      "ĠDIS": 9408,
      "contrib": 9409,
      "Ġ91": 9410,
      "------------------------------------------------------------------------------": 9411,
      "rx": 9412,
      "))))": 9413,
      "Ġ68": 9414,
      "Actions": 9415,
      "ZERO": 9416,
      "Ġvery": 9417,
      "Ġexecution": 9418,
      "dra": 9419,
      "gramm": 9420,
      "/'": 9421,
      "Äĥ": 9422,
      "Disabled": 9423,
      "Graphics": 9424,
      "Ġvalign": 9425,
      "355": 9426,
      "DM": 9427,
      "sock": 9428,
      "elementor": 9429,
      "FK": 9430,
      "ikz": 9431,
      "FM": 9432,
      "efficient": 9433,
      "contain": 9434,
      "agg": 9435,
      "eref": 9436,
      "ëĬ": 9437,
      "Reason": 9438,
      "ĠMock": 9439,
      "',['": 9440,
      "Ġ150": 9441,
      "Ġbehavior": 9442,
      "History": 9443,
      "Qual": 9444,
      "oracle": 9445,
      "ĠGe": 9446,
      "qa": 9447,
      "967": 9448,
      "Structure": 9449,
      "Nullable": 9450,
      "ĠRef": 9451,
      "Ġstatement": 9452,
      "ĠLOGICAL": 9453,
      "pure": 9454,
      "Ġfr": 9455,
      "ĠØ§ÙĦ": 9456,
      "referred": 9457,
      "Focus": 9458,
      "dj": 9459,
      "Ġlookup": 9460,
      "Standard": 9461,
      "Room": 9462,
      "woff": 9463,
      "278": 9464,
      "xFFFF": 9465,
      "ARK": 9466,
      "legal": 9467,
      "Ð¾Ð´": 9468,
      "Ùģ": 9469,
      "Ġlistener": 9470,
      "Ġtokens": 9471,
      "Generate": 9472,
      "nowrap": 9473,
      "ĠPURPOSE": 9474,
      "indic": 9475,
      "attrs": 9476,
      "èĻ": 9477,
      "Completed": 9478,
      "ajor": 9479,
      "RP": 9480,
      "iq": 9481,
      "ota": 9482,
      "330": 9483,
      "Browser": 9484,
      "LAT": 9485,
      "RX": 9486,
      "ĠALLOC": 9487,
      "NIL": 9488,
      "Ġart": 9489,
      "herits": 9490,
      "Ġprev": 9491,
      "Serialization": 9492,
      "èĥ½": 9493,
      "FQ": 9494,
      "OG": 9495,
      "Ġyang": 9496,
      "áº¥n": 9497,
      "Validator": 9498,
      "Monad": 9499,
      "ÐµÐ½Ð¸": 9500,
      "Feed": 9501,
      "ĠARM": 9502,
      "pragma": 9503,
      "uapi": 9504,
      "174": 9505,
      "Ġclasses": 9506,
      "Ġ63": 9507,
      "275": 9508,
      "uv": 9509,
      "Ġvariant": 9510,
      "UC": 9511,
      "Ġ69": 9512,
      "picture": 9513,
      "NB": 9514,
      "overview": 9515,
      "Implicit": 9516,
      "Ġadmin": 9517,
      "Mac": 9518,
      "rectangle": 9519,
      "ĠMPI": 9520,
      "TL": 9521,
      "Ġcontroller": 9522,
      "Vars": 9523,
      "163": 9524,
      "Processor": 9525,
      "229": 9526,
      "atalog": 9527,
      "âĶĢâĶĢâĶĢâĶĢ": 9528,
      "Ġcharset": 9529,
      "Di": 9530,
      "Rot": 9531,
      "ĠFree": 9532,
      "strings": 9533,
      "lists": 9534,
      "ìĬ": 9535,
      "ĠExpr": 9536,
      "BEGIN": 9537,
      "NESS": 9538,
      "Ġtf": 9539,
      "Put": 9540,
      "Ġln": 9541,
      "binding": 9542,
      "approx": 9543,
      "Defined": 9544,
      "Ġscalar": 9545,
      "Ignore": 9546,
      "Ġtheme": 9547,
      "Ġvideo": 9548,
      "jj": 9549,
      "CLR": 9550,
      "ivalent": 9551,
      "ĠFrame": 9552,
      "Ġist": 9553,
      "recv": 9554,
      "Ġgood": 9555,
      "OU": 9556,
      "}]": 9557,
      "providers": 9558,
      "Ġperiod": 9559,
      "Ġpackages": 9560,
      "æµ": 9561,
      "ĠAssembly": 9562,
      "rbp": 9563,
      "ĠBUT": 9564,
      ")/$(": 9565,
      "==\"": 9566,
      "Ġ;;": 9567,
      "341": 9568,
      "WE": 9569,
      "lst": 9570,
      "archive": 9571,
      "POS": 9572,
      "TOP": 9573,
      "cw": 9574,
      "states": 9575,
      "ĊĠĠĠĠĠĠĠĠĠĠĠĠĠĠĠĠĠĠĠĠĠĠĠĠĠĠĠĠĠĠĠĠĠĠĠĠĠĠ": 9576,
      "123456": 9577,
      "Sem": 9578,
      "Ð½Ñĭ": 9579,
      "Styles": 9580,
      "ĠLIC": 9581,
      "Makefile": 9582,
      "Fire": 9583,
      "cdn": 9584,
      "igo": 9585,
      "ĠFOREIGN": 9586,
      "congr": 9587,
      "LEASE": 9588,
      "--------------------------------------------------------------------------------": 9589,
      "WARNING": 9590,
      "Encode": 9591,
      "Logging": 9592,
      "Ġreadonly": 9593,
      "Mov": 9594,
      "ä¸Ĭ": 9595,
      "ĠRegion": 9596,
      "describe": 9597,
      "readonly": 9598,
      "alytics": 9599,
      "pts": 9600,
      "Ġ73": 9601,
      "Edge": 9602,
      "Partial": 9603,
      "Ay": 9604,
      "ancer": 9605,
      "Ġna": 9606,
      "è¾": 9607,
      "247": 9608,
      "++++++++++++++++": 9609,
      "åįĢ": 9610,
      "KeywordTok": 9611,
      "Ġdetermin": 9612,
      "#{": 9613,
      "period": 9614,
      "ilon": 9615,
      "243": 9616,
      "Series": 9617,
      "ĠINCL": 9618,
      "manifest": 9619,
      "notify": 9620,
      "Regular": 9621,
      "HH": 9622,
      "geometry": 9623,
      "protected": 9624,
      "306": 9625,
      "versions": 9626,
[...]
